{
  "version": "1.0",
  "truncation": null,
  "padding": null,
  "added_tokens": [
    {
      "id": 0,
      "content": "[PAD]",
      "single_word": false,
      "lstrip": false,
      "rstrip": false,
      "normalized": false,
      "special": true
    },
    {
      "id": 1,
      "content": "[UNK]",
      "single_word": false,
      "lstrip": false,
      "rstrip": false,
      "normalized": false,
      "special": true
    },
    {
      "id": 2,
      "content": "[CLS]",
      "single_word": false,
      "lstrip": false,
      "rstrip": false,
      "normalized": false,
      "special": true
    },
    {
      "id": 3,
      "content": "[SEP]",
      "single_word": false,
      "lstrip": false,
      "rstrip": false,
      "normalized": false,
      "special": true
    },
    {
      "id": 4,
      "content": "USER:",
      "single_word": false,
      "lstrip": false,
      "rstrip": false,
      "normalized": false,
      "special": true
    },
    {
      "id": 5,
      "content": "AI:",
      "single_word": false,
      "lstrip": false,
      "rstrip": false,
      "normalized": false,
      "special": true
    },
    {
      "id": 6,
      "content": "<END>",
      "single_word": false,
      "lstrip": false,
      "rstrip": false,
      "normalized": false,
      "special": true
    }
  ],
  "normalizer": {
    "type": "Sequence",
    "normalizers": [
      {
        "type": "NFKC"
      }
    ]
  },
  "pre_tokenizer": {
    "type": "ByteLevel",
    "add_prefix_space": true,
    "trim_offsets": true,
    "use_regex": true
  },
  "post_processor": null,
  "decoder": {
    "type": "ByteLevel",
    "add_prefix_space": true,
    "trim_offsets": true,
    "use_regex": true
  },
  "model": {
    "type": "BPE",
    "dropout": null,
    "unk_token": "[UNK]",
    "continuing_subword_prefix": null,
    "end_of_word_suffix": null,
    "fuse_unk": false,
    "byte_fallback": false,
    "ignore_merges": false,
    "vocab": {
      "[PAD]": 0,
      "[UNK]": 1,
      "[CLS]": 2,
      "[SEP]": 3,
      "USER:": 4,
      "AI:": 5,
      "<END>": 6,
      "!": 7,
      "\"": 8,
      "&": 9,
      "'": 10,
      "(": 11,
      ")": 12,
      "*": 13,
      "+": 14,
      ",": 15,
      "-": 16,
      ".": 17,
      "/": 18,
      "0": 19,
      "1": 20,
      "2": 21,
      "3": 22,
      "4": 23,
      "5": 24,
      "6": 25,
      "7": 26,
      "8": 27,
      "9": 28,
      ":": 29,
      ";": 30,
      "=": 31,
      "?": 32,
      "A": 33,
      "B": 34,
      "C": 35,
      "D": 36,
      "E": 37,
      "F": 38,
      "G": 39,
      "H": 40,
      "I": 41,
      "J": 42,
      "K": 43,
      "L": 44,
      "M": 45,
      "N": 46,
      "O": 47,
      "P": 48,
      "Q": 49,
      "R": 50,
      "S": 51,
      "T": 52,
      "U": 53,
      "V": 54,
      "W": 55,
      "X": 56,
      "Y": 57,
      "Z": 58,
      "[": 59,
      "]": 60,
      "_": 61,
      "`": 62,
      "a": 63,
      "b": 64,
      "c": 65,
      "d": 66,
      "e": 67,
      "f": 68,
      "g": 69,
      "h": 70,
      "i": 71,
      "j": 72,
      "k": 73,
      "l": 74,
      "m": 75,
      "n": 76,
      "o": 77,
      "p": 78,
      "q": 79,
      "r": 80,
      "s": 81,
      "t": 82,
      "u": 83,
      "v": 84,
      "w": 85,
      "x": 86,
      "y": 87,
      "z": 88,
      "~": 89,
      "¥": 90,
      "°": 91,
      "±": 92,
      "¼": 93,
      "Â": 94,
      "Ã": 95,
      "Î": 96,
      "â": 97,
      "Ġ": 98,
      "Ģ": 99,
      "Ī": 100,
      "ī": 101,
      "Ĳ": 102,
      "Ĵ": 103,
      "ĵ": 104,
      "Ķ": 105,
      "Ĺ": 106,
      "Ġt": 107,
      "at": 108,
      "on": 109,
      "in": 110,
      "Ġa": 111,
      "er": 112,
      "es": 113,
      "ĠA": 114,
      "or": 115,
      "he": 116,
      "en": 117,
      "ĠAI": 118,
      "ĠU": 119,
      "ĠUS": 120,
      "ER": 121,
      "Ġc": 122,
      "ĠUSER": 123,
      "Ġs": 124,
      "Ġthe": 125,
      "re": 126,
      "Ġp": 127,
      "is": 128,
      "ion": 129,
      "Ġd": 130,
      "ed": 131,
      "ro": 132,
      "ic": 133,
      "Ġf": 134,
      "an": 135,
      "Ġm": 136,
      "it": 137,
      "ing": 138,
      "ĠW": 139,
      "ĠWh": 140,
      "al": 141,
      "ar": 142,
      "Ġan": 143,
      "Ġin": 144,
      "Ġb": 145,
      "ou": 146,
      "Ġw": 147,
      "st": 148,
      "el": 149,
      "ation": 150,
      "Ġo": 151,
      "Ġand": 152,
      "im": 153,
      "ĠI": 154,
      "ec": 155,
      "ĠWhat": 156,
      "ent": 157,
      "Ġfor": 158,
      "Ġl": 159,
      "Ġto": 160,
      "et": 161,
      "Ġis": 162,
      "am": 163,
      "om": 164,
      "ut": 165,
      "Ġpro": 166,
      "Ġh": 167,
      "ac": 168,
      "oat": 169,
      "ĠR": 170,
      "lu": 171,
      "ol": 172,
      "ĠB": 173,
      "Ġre": 174,
      "ow": 175,
      "le": 176,
      "Ġcon": 177,
      "Ġu": 178,
      "id": 179,
      "ur": 180,
      "ig": 181,
      "ess": 182,
      "Ġof": 183,
      "ich": 184,
      "ect": 185,
      "ce": 186,
      "Ġth": 187,
      "ith": 188,
      "ers": 189,
      "ĠWhich": 190,
      "Ġv": 191,
      "ĠC": 192,
      "OS": 193,
      "'s": 194,
      "Ġon": 195,
      "od": 196,
      "ul": 197,
      "Ġn": 198,
      "lue": 199,
      "Ġr": 200,
      "ĠBlue": 201,
      "Ġy": 202,
      "as": 203,
      "ĠT": 204,
      "ag": 205,
      "per": 206,
      "oc": 207,
      "for": 208,
      "Boat": 209,
      "ve": 210,
      "Ġyou": 211,
      "ĠBlueBoat": 212,
      "ĠH": 213,
      "Ġe": 214,
      "ĠL": 215,
      "ĠN": 216,
      "ĠD": 217,
      "ot": 218,
      "ter": 219,
      "ch": 220,
      "form": 221,
      "Ġwith": 222,
      "Ġcom": 223,
      "ens": 224,
      "Ġst": 225,
      "ad": 226,
      "ard": 227,
      "il": 228,
      "ĠP": 229,
      "Ġus": 230,
      "ĠM": 231,
      "ab": 232,
      "ĠHow": 233,
      "ment": 234,
      "ĠS": 235,
      "ity": 236,
      "Ġdo": 237,
      "ĠG": 238,
      "un": 239,
      "ĠROS": 240,
      "ver": 241,
      "ust": 242,
      "ain": 243,
      "Ġen": 244,
      "pt": 245,
      "em": 246,
      "ate": 247,
      "est": 248,
      "Ġcomp": 249,
      "out": 250,
      "are": 251,
      "os": 252,
      "gr": 253,
      "Ġcont": 254,
      "Ġit": 255,
      "Ġde": 256,
      "ri": 257,
      "and": 258,
      "Ġac": 259,
      "Ġare": 260,
      "ĠV": 261,
      "ist": 262,
      "Ġsy": 263,
      "ject": 264,
      "ĠThe": 265,
      "pp": 266,
      "av": 267,
      "Ġcan": 268,
      "vid": 269,
      "ly": 270,
      "iz": 271,
      "ance": 272,
      "Ġprovid": 273,
      "Ġg": 274,
      "Ġproject": 275,
      "Ġdoes": 276,
      "Ġor": 277,
      "Ġbe": 278,
      "ure": 279,
      "Ġpre": 280,
      "rol": 281,
      "ay": 282,
      "formation": 283,
      "Ġsens": 284,
      "ata": 285,
      "Ġex": 286,
      "AR": 287,
      "ime": 288,
      "ware": 289,
      "Ġinformation": 290,
      "stem": 291,
      "Ġha": 292,
      "ical": 293,
      "Ġab": 294,
      "igh": 295,
      "Ġthes": 296,
      "ron": 297,
      "Ġal": 298,
      "Ġsensor": 299,
      "DAR": 300,
      "iDAR": 301,
      "ĠLiDAR": 302,
      "if": 303,
      "ive": 304,
      "qu": 305,
      "us": 306,
      "Ġtr": 307,
      "Ġmod": 308,
      "icro": 309,
      "ous": 310,
      "age": 311,
      "Ġdata": 312,
      "ock": 313,
      "Ġboat": 314,
      "Ġres": 315,
      "Ġmicro": 316,
      "Ġhave": 317,
      "Ġabout": 318,
      "Ġcontrol": 319,
      "te": 320,
      "Ġas": 321,
      "pl": 322,
      "ine": 323,
      "ated": 324,
      "Ġper": 325,
      "ions": 326,
      "oll": 327,
      "ign": 328,
      "Ġ(": 329,
      "fer": 330,
      "Ġby": 331,
      "th": 332,
      "Ġad": 333,
      "Ġwh": 334,
      "Ġsu": 335,
      "ates": 336,
      "ision": 337,
      "ĠIn": 338,
      "bst": 339,
      "ĠMy": 340,
      "pere": 341,
      "of": 342,
      "Ġsystem": 343,
      "enc": 344,
      "Ġco": 345,
      "ics": 346,
      "ations": 347,
      "ian": 348,
      "âĢ": 349,
      "oard": 350,
      "olo": 351,
      "agn": 352,
      "ight": 353,
      "Ġwas": 354,
      "Am": 355,
      "Ġacc": 356,
      "ĠmicroAm": 357,
      "ĠmicroAmpere": 358,
      "enti": 359,
      "ack": 360,
      "essel": 361,
      "ear": 362,
      "Ġro": 363,
      "'t": 364,
      "Ġdon": 365,
      "Ġinter": 366,
      "CA": 367,
      "Ġlo": 368,
      "Ġaut": 369,
      "Ġthr": 370,
      "Ġthesis": 371,
      "bstac": 372,
      "Ġhe": 373,
      "ort": 374,
      "Ġpar": 375,
      "Ġmodel": 376,
      "onom": 377,
      "Ġused": 378,
      "âĢĲ": 379,
      "pe": 380,
      "um": 381,
      "ĠAs": 382,
      "able": 383,
      "Ġthrust": 384,
      "onomous": 385,
      "les": 386,
      "uring": 387,
      "ĠCan": 388,
      "ork": 389,
      "ct": 390,
      "ies": 391,
      "Ġvessel": 392,
      "ĠNM": 393,
      "ell": 394,
      "vel": 395,
      "ĠIt": 396,
      "ĠO": 397,
      "Ġdes": 398,
      "Ġun": 399,
      "yn": 400,
      "Ġtest": 401,
      "cept": 402,
      "ult": 403,
      "ib": 404,
      "Ġim": 405,
      "ord": 406,
      "ik": 407,
      "Ġup": 408,
      "PC": 409,
      "ster": 410,
      "Ġ3": 411,
      "PS": 412,
      "ys": 413,
      "Ġty": 414,
      "Ġsim": 415,
      "Ġbut": 416,
      "tegr": 417,
      "ED": 418,
      "Ġk": 419,
      "Ġsc": 420,
      "ite": 421,
      "ĠNMPC": 422,
      "NS": 423,
      "Ġwat": 424,
      "Ġobstac": 425,
      "ĠGNS": 426,
      "ĠGNSS": 427,
      "Ġman": 428,
      "ely": 429,
      "ame": 430,
      "uter": 431,
      "Ġautonomous": 432,
      "MU": 433,
      "iss": 434,
      "Ġduring": 435,
      "all": 436,
      "ĠIMU": 437,
      "Ġreal": 438,
      "chron": 439,
      "ception": 440,
      "ge": 441,
      "rom": 442,
      "ans": 443,
      "amet": 444,
      "ynam": 445,
      "Ġsimul": 446,
      "Ġme": 447,
      "iv": 448,
      "vi": 449,
      "Ġfrom": 450,
      "ace": 451,
      "Ġdesign": 452,
      "ĠK": 453,
      "Ġpl": 454,
      "Ġdynam": 455,
      "Ġmiss": 456,
      "de": 457,
      "ual": 458,
      "ull": 459,
      "Ġparamet": 460,
      "ere": 461,
      "ence": 462,
      "Ġvi": 463,
      "DS": 464,
      "ap": 465,
      "ĠZ": 466,
      "Ġqu": 467,
      "Ġsyn": 468,
      "ms": 469,
      "Ġintegr": 470,
      "Ġfav": 471,
      "ary": 472,
      "Ġprec": 473,
      "Ġsynchron": 474,
      "Ġfavor": 475,
      "ise": 476,
      "Ġdet": 477,
      "Ġnot": 478,
      "ĠPro": 479,
      "Ġ2": 480,
      "ind": 481,
      "Ġch": 482,
      "aragn": 483,
      "ĠVaragn": 484,
      "ĠVaragnolo": 485,
      "lo": 486,
      "ple": 487,
      "isk": 488,
      "Ġfi": 489,
      "ĠZED": 490,
      "af": 491,
      "nect": 492,
      "time": 493,
      "tware": 494,
      "Ġ6": 495,
      "ĠF": 496,
      "ĠY": 497,
      "Ġmess": 498,
      "ets": 499,
      "Ġconnect": 500,
      "Ġne": 501,
      "ocking": 502,
      "oftware": 503,
      "bot": 504,
      "cl": 505,
      "cess": 506,
      "ĠAl": 507,
      "ech": 508,
      "Ġproviding": 509,
      "Ġ\"": 510,
      "Ġ0": 511,
      "Ġover": 512,
      "etw": 513,
      "Ġyour": 514,
      "ency": 515,
      "Ġoper": 516,
      "ower": 517,
      "Ġperception": 518,
      "earch": 519,
      "fig": 520,
      "pon": 521,
      "ator": 522,
      "Ġpr": 523,
      "Ġits": 524,
      "Ġwater": 525,
      "gor": 526,
      "xim": 527,
      "Ġsoftware": 528,
      "Ġfoc": 529,
      "Ġrec": 530,
      "Ġalgor": 531,
      "ollision": 532,
      "Ġsynchroniz": 533,
      "Ġfocus": 534,
      "Ġalgorith": 535,
      "ings": 536,
      "ĠWho": 537,
      "Ġinc": 538,
      "ĠRe": 539,
      "Ġresearch": 540,
      "Ġfavorite": 541,
      "Ġ1": 542,
      "end": 543,
      "idance": 544,
      "ardware": 545,
      "ast": 546,
      "eloc": 547,
      "ĠDo": 548,
      "Ġupd": 549,
      "ail": 550,
      "gh": 551,
      "Ġtim": 552,
      "ility": 553,
      "rib": 554,
      "fess": 555,
      "op": 556,
      "Ġrel": 557,
      "ning": 558,
      "ts": 559,
      "vis": 560,
      "Ġlik": 561,
      "Ġnod": 562,
      "gren": 563,
      "Ġprovides": 564,
      "stergren": 565,
      "ĠAlstergren": 566,
      "ial": 567,
      "lp": 568,
      "ĠJ": 569,
      "Ġdist": 570,
      "Ġmain": 571,
      "Ġhelp": 572,
      "echn": 573,
      "elocity": 574,
      "ces": 575,
      "ld": 576,
      "ry": 577,
      "ud": 578,
      "Ġam": 579,
      "ĠAn": 580,
      "our": 581,
      "amian": 582,
      "ach": 583,
      "ased": 584,
      "ĠDamian": 585,
      "Ġenvi": 586,
      "ronment": 587,
      "Ġtrans": 588,
      "Ġass": 589,
      "ĠDamiano": 590,
      "Ġenvironment": 591,
      "Ġat": 592,
      "era": 593,
      "Ġset": 594,
      "amera": 595,
      "Ġwhich": 596,
      "ĠYes": 597,
      "ff": 598,
      "ru": 599,
      "ond": 600,
      "Ġfr": 601,
      "Ġmult": 602,
      "ition": 603,
      "Ġform": 604,
      "Ġcomm": 605,
      "Ġusing": 606,
      "avig": 607,
      "DOS": 608,
      "du": 609,
      "led": 610,
      "mot": 611,
      "Ġ5": 612,
      "Ġapp": 613,
      "ĠACA": 614,
      "ents": 615,
      "Ġsuper": 616,
      "fessor": 617,
      "ĠACADOS": 618,
      "RI": 619,
      "Ġtime": 620,
      "Ġma": 621,
      "ari": 622,
      "Ġhardware": 623,
      "Ġconfig": 624,
      "Ġvia": 625,
      "gy": 626,
      "Ġsaf": 627,
      "ability": 628,
      "Ġgu": 629,
      "Ġsensors": 630,
      "Ġtrain": 631,
      "Ġinclu": 632,
      ").": 633,
      "ep": 634,
      "face": 635,
      "gs": 636,
      "ses": 637,
      "erv": 638,
      "Ġrun": 639,
      "ibr": 640,
      "Ġdynamic": 641,
      "ĠE": 642,
      "ĠAre": 643,
      "Ġcamera": 644,
      "Ġsh": 645,
      "rou": 646,
      "aran": 647,
      "oun": 648,
      "Ġlat": 649,
      "Ġprim": 650,
      "Ġph": 651,
      "ant": 652,
      "Ġprocess": 653,
      "ĠDDS": 654,
      "ĠPPS": 655,
      "Ġaccur": 656,
      "board": 657,
      "ci": 658,
      "jer": 659,
      "ken": 660,
      "ost": 661,
      "sen": 662,
      "Ġpack": 663,
      "imit": 664,
      "econd": 665,
      "Ġlimit": 666,
      "ĠBjer": 667,
      "Ġcomputer": 668,
      "Ġall": 669,
      "ysical": 670,
      "ĠBjerken": 671,
      "oin": 672,
      "pro": 673,
      "ors": 674,
      "Ġrespon": 675,
      "Ġperform": 676,
      "Ġsimulation": 677,
      "botics": 678,
      "Ġconfigur": 679,
      "Ġens": 680,
      "Ġcur": 681,
      "Ġsp": 682,
      "Ġdis": 683,
      "ution": 684,
      "act": 685,
      "ures": 686,
      "ĠCRI": 687,
      "ages": 688,
      "Ġmulti": 689,
      "ef": 690,
      "ĠOS": 691,
      "Ġag": 692,
      "Ġdocking": 693,
      "ice": 694,
      "Ġhand": 695,
      "plo": 696,
      "rough": 697,
      "der": 698,
      "gre": 699,
      "Ġtop": 700,
      "Ġprot": 701,
      "tere": 702,
      "Ġlike": 703,
      "aw": 704,
      "ler": 705,
      "lsen": 706,
      "ub": 707,
      "Ġdec": 708,
      "ication": 709,
      "arlsen": 710,
      "eth": 711,
      "ide": 712,
      "ĠKarlsen": 713,
      "Ġphysical": 714,
      "ress": 715,
      "ating": 716,
      "ore": 717,
      "Ġ64": 718,
      "Ġupdates": 719,
      "Ġtiming": 720,
      "Ġsupervis": 721,
      "ploy": 722,
      "ystem": 723,
      "Ġpower": 724,
      "ros": 725,
      "Ġint": 726,
      "ould": 727,
      "und": 728,
      "Ġdevel": 729,
      "Ġtyp": 730,
      "Ġtype": 731,
      "Ġfe": 732,
      "elt": 733,
      "ection": 734,
      "Ġobstacle": 735,
      "Ġparameter": 736,
      "PU": 737,
      "Ġtechn": 738,
      "Ġav": 739,
      "ener": 740,
      "ang": 741,
      "Ġmar": 742,
      "imers": 743,
      "ĠIP": 744,
      "ĠIs": 745,
      "Ġremot": 746,
      "ĠCollision": 747,
      "ference": 748,
      "peed": 749,
      "Ġmessage": 750,
      "etson": 751,
      "ĠReimers": 752,
      "ĠJetson": 753,
      "Ġinclud": 754,
      "eg": 755,
      "ire": 756,
      "pos": 757,
      "way": 758,
      "atam": 759,
      "ately": 760,
      "ĠAut": 761,
      "Ġcatam": 762,
      "Ġpos": 763,
      "round": 764,
      "Ġredu": 765,
      "Ġuse": 766,
      "ĠSenti": 767,
      "Ġprefer": 768,
      "Ġobstacles": 769,
      "ount": 770,
      "Ġresponses": 771,
      "Ġcatamaran": 772,
      "ient": 773,
      "atter": 774,
      "hen": 775,
      "Ġbatter": 776,
      "Ġtheses": 777,
      "Ġload": 778,
      "ĠProfessor": 779,
      "Ġassist": 780,
      "Ġtraining": 781,
      "ubl": 782,
      "port": 783,
      "Ġcust": 784,
      "Ġoff": 785,
      "Ġdeploy": 786,
      "Ġexper": 787,
      "Ġadd": 788,
      "Ġimple": 789,
      "Ġmissions": 790,
      "Ġcustom": 791,
      "Ġimplement": 792,
      "NU": 793,
      "PI": 794,
      "TNU": 795,
      "aun": 796,
      "Ġif": 797,
      "ann": 798,
      "Ġhigh": 799,
      "Ġprovide": 800,
      "Ġadv": 801,
      "Ġaccess": 802,
      "ction": 803,
      "ordin": 804,
      "Ġmission": 805,
      "her": 806,
      "ir": 807,
      "ks": 808,
      "now": 809,
      "rin": 810,
      "atform": 811,
      "Ġpers": 812,
      "ĠMCA": 813,
      "Ġexec": 814,
      "Ġunder": 815,
      "Ġtests": 816,
      "Ġplatform": 817,
      "Ġneed": 818,
      "Ġsynchronization": 819,
      "Ġframe": 820,
      "Ġlatency": 821,
      "Ġcurr": 822,
      "Ġperson": 823,
      "ĠMCAP": 824,
      "AV": 825,
      "PN": 826,
      "RL": 827,
      "apt": 828,
      "Ġsol": 829,
      "Ġconst": 830,
      "Ġvelocity": 831,
      "ular": 832,
      "ĠDRL": 833,
      "ĠGPS": 834,
      "Ġcontain": 835,
      "ĠVPN": 836,
      "etwork": 837,
      "oint": 838,
      "'m": 839,
      "60": 840,
      "Board": 841,
      "dic": 842,
      "put": 843,
      "Ġsur": 844,
      "Ġwork": 845,
      "ĠRo": 846,
      "ĠRisk": 847,
      "Ġonboard": 848,
      "Ġnetwork": 849,
      "Ġgener": 850,
      "Ġsupp": 851,
      "Ġcoordin": 852,
      "earning": 853,
      "Ġalgorithm": 854,
      "Ġdevelop": 855,
      "ĠSentiBoard": 856,
      "acy": 857,
      "Ġread": 858,
      "idd": 859,
      "Ġthrough": 860,
      "ĠSystem": 861,
      "ocker": 862,
      "Ġknow": 863,
      "Ġprecise": 864,
      "Ġprimary": 865,
      "Ġaccuracy": 866,
      "ethod": 867,
      "Ġmarine": 868,
      "pose": 869,
      "PO": 870,
      "ft": 871,
      "ont": 872,
      "roxim": 873,
      "Ġnavig": 874,
      "Ġeff": 875,
      "dex": 876,
      "Ġparameters": 877,
      "Ġbattery": 878,
      "roximately": 879,
      "50": 880,
      "ao": 881,
      "een": 882,
      "ie": 883,
      "ĠQ": 884,
      "Ġel": 885,
      "Ġtw": 886,
      "ong": 887,
      "Ġach": 888,
      "Ġspeed": 889,
      "Ġfil": 890,
      "Ġrece": 891,
      "ĠCao": 892,
      "Ġstand": 893,
      "ables": 894,
      "Ġcontroller": 895,
      "ther": 896,
      "Ġthruster": 897,
      "Ġdesigned": 898,
      "aunch": 899,
      "Ġsupport": 900,
      "Ġachie": 901,
      "67": 902,
      "TK": 903,
      "vers": 904,
      "Ġcal": 905,
      "Ġpri": 906,
      "Ġmot": 907,
      "Ġmore": 908,
      "arb": 909,
      "Ġstud": 910,
      "Ġstability": 911,
      "ptim": 912,
      "Ġinformational": 913,
      "ĠIndex": 914,
      "ences": 915,
      "Ġintegration": 916,
      "Ġprecision": 917,
      "Ġformat": 918,
      "Ġguidance": 919,
      "Ġconfiguration": 920,
      "Ġpreferences": 921,
      "Ġprior": 922,
      "Pand": 923,
      "ox": 924,
      "oidance": 925,
      "atte": 926,
      "erm": 927,
      "Ġcap": 928,
      "Ġsm": 929,
      "Ġserv": 930,
      "Ġpubl": 931,
      "Ġbetw": 932,
      "ĠLatte": 933,
      "Ġallow": 934,
      "Panda": 935,
      "Ġbetween": 936,
      "ĠLattePanda": 937,
      "ied": 938,
      "iagn": 939,
      "oS": 940,
      "onik": 941,
      "ĠApp": 942,
      "Ġse": 943,
      "Ġdri": 944,
      "Ġmethod": 945,
      "Ġboard": 946,
      "ected": 947,
      "Ġrisk": 948,
      "ĠTo": 949,
      "ĠTelt": 950,
      "ĠDocker": 951,
      "adem": 952,
      "Ġencl": 953,
      "Ġacadem": 954,
      "ific": 955,
      "Ġsystems": 956,
      "ology": 957,
      "ivity": 958,
      "Ġnodes": 959,
      "Ġpersonal": 960,
      "iagnost": 961,
      "onika": 962,
      "ĠTeltonika": 963,
      "Ġenclos": 964,
      "Ġacademic": 965,
      "one": 966,
      "Ġdid": 967,
      "Ġfre": 968,
      "ĠWhy": 969,
      "eld": 970,
      "ute": 971,
      "olic": 972,
      "Ġcompress": 973,
      "osen": 974,
      "Ġrouter": 975,
      "Ġchosen": 976,
      "Ġalgorithms": 977,
      "ails": 978,
      "Ġnode": 979,
      "ruct": 980,
      "Ġperformance": 981,
      "annel": 982,
      "Ġeffic": 983,
      "TX": 984,
      "UTX": 985,
      "ood": 986,
      "atic": 987,
      "enari": 988,
      "Ġhull": 989,
      "ĠRUTX": 990,
      "own": 991,
      "ĠTh": 992,
      "Ġem": 993,
      "ĠNTNU": 994,
      "Ġcompon": 995,
      "ized": 996,
      "ured": 997,
      "Ġ360": 998,
      "Ġkind": 999,
      "lox": 1000,
      "load": 1001,
      "Ġdistrib": 1002,
      "ross": 1003,
      "Ġremote": 1004,
      "dict": 1005,
      "ĠRobotics": 1006,
      "blox": 1007,
      "rain": 1008,
      "work": 1009,
      "Ġout": 1010,
      "Ġsign": 1011,
      "Ġfun": 1012,
      "Ġmount": 1013,
      "Ġharb": 1014,
      "ocol": 1015,
      "ĠNor": 1016,
      "Ġuses": 1017,
      "thing": 1018,
      "ential": 1019,
      "Ġintern": 1020,
      "Ġhead": 1021,
      "Ġmessages": 1022,
      "Ġrecord": 1023,
      "Ġsett": 1024,
      "Ġappl": 1025,
      "Ġdeck": 1026,
      "Ġposition": 1027,
      "Ġimplementation": 1028,
      "ced": 1029,
      "ile": 1030,
      "ium": 1031,
      "line": 1032,
      "mod": 1033,
      "ves": 1034,
      "Ġte": 1035,
      "Ġcl": 1036,
      "Ġpur": 1037,
      "Ġbus": 1038,
      "Ġbased": 1039,
      "Ġwere": 1040,
      "Ġwould": 1041,
      "Ġwhen": 1042,
      "Ġlearning": 1043,
      "Ġlong": 1044,
      "Ġcons": 1045,
      "Ġver": 1046,
      "ĠNo": 1047,
      "Ġwithout": 1048,
      "ĠPPO": 1049,
      "ollard": 1050,
      "Ġmany": 1051,
      "ivers": 1052,
      "Ġdisc": 1053,
      "Ġagent": 1054,
      "Ġtopic": 1055,
      "Ġinto": 1056,
      "ĠQoS": 1057,
      "00": 1058,
      "Time": 1059,
      "eu": 1060,
      "eight": 1061,
      "pend": 1062,
      "ative": 1063,
      "enef": 1064,
      "Ġstere": 1065,
      "read": 1066,
      "Ġdiagnost": 1067,
      "Ġmidd": 1068,
      "Ġbenef": 1069,
      "leware": 1070,
      "Ġcond": 1071,
      "Ġvari": 1072,
      "Ġone": 1073,
      "ase": 1074,
      "uster": 1075,
      "ize": 1076,
      "Ġexpl": 1077,
      "Ġcost": 1078,
      "Ġlogs": 1079,
      "ĠOuster": 1080,
      "Ġscenari": 1081,
      "Ġcommun": 1082,
      "Ġpacks": 1083,
      "Ġsupervisor": 1084,
      "Ġtypical": 1085,
      "Ġreduces": 1086,
      "Ġstandard": 1087,
      "Ġpurpose": 1088,
      "Ġstereo": 1089,
      "Ġmiddleware": 1090,
      "ix": 1091,
      "iver": 1092,
      "ps": 1093,
      "second": 1094,
      "Ġ`": 1095,
      "ish": 1096,
      "ances": 1097,
      "oud": 1098,
      "elf": 1099,
      "ational": 1100,
      "Ġoptim": 1101,
      "Ġtool": 1102,
      "ĠRTK": 1103,
      "old": 1104,
      "Ġvis": 1105,
      "ared": 1106,
      "Ġthrusters": 1107,
      "ible": 1108,
      "Ġmeas": 1109,
      "msgs": 1110,
      "Ġfield": 1111,
      "Ġconnectivity": 1112,
      "Ġrelated": 1113,
      "Ġtransport": 1114,
      "Ġsolver": 1115,
      "Ġnavigation": 1116,
      "DDS": 1117,
      "OL": 1118,
      "Re": 1119,
      "ycl": 1120,
      "Ġ+": 1121,
      "Ġcre": 1122,
      "Ġmat": 1123,
      "itions": 1124,
      "alys": 1125,
      "art": 1126,
      "Ġlang": 1127,
      "ĠCOL": 1128,
      "ĠCycl": 1129,
      "Ġev": 1130,
      "ĠNX": 1131,
      "Ġstep": 1132,
      "gram": 1133,
      "Ġdepend": 1134,
      "ĠOrin": 1135,
      "degre": 1136,
      "Ġsynchronized": 1137,
      "Ġlimitations": 1138,
      "Ġframework": 1139,
      "ĠApproximately": 1140,
      "oneDDS": 1141,
      "Ġbenefit": 1142,
      "alysis": 1143,
      "Ġlangu": 1144,
      "ĠCycloneDDS": 1145,
      "degree": 1146,
      "OF": 1147,
      "back": 1148,
      "crib": 1149,
      "ior": 1150,
      "not": 1151,
      "ues": 1152,
      "Ġcollision": 1153,
      "Ġdual": 1154,
      "Ġfl": 1155,
      "Ġlibr": 1156,
      "ety": 1157,
      "Ġcannot": 1158,
      "Ġimpro": 1159,
      "allback": 1160,
      "Ġquest": 1161,
      "Ġsafety": 1162,
      "Ġprotocol": 1163,
      "Ġfunction": 1164,
      "Ġconditions": 1165,
      "Ġlibrary": 1166,
      "VO": 1167,
      "ke": 1168,
      "ov": 1169,
      "rt": 1170,
      "ved": 1171,
      "Ġx": 1172,
      "Ġsing": 1173,
      "Ġpolic": 1174,
      "Ġmin": 1175,
      "ality": 1176,
      "Ġbr": 1177,
      "Ġwide": 1178,
      "ames": 1179,
      "Ġhous": 1180,
      "level": 1181,
      "urb": 1182,
      "Ġthis": 1183,
      "ĠHz": 1184,
      "ĠNavig": 1185,
      "ensive": 1186,
      "very": 1187,
      "Ġact": 1188,
      "Ġacross": 1189,
      "ĠVelocity": 1190,
      "Ġpredict": 1191,
      "Ġext": 1192,
      "Ġinterface": 1193,
      "ĠObstac": 1194,
      "Ġdynamics": 1195,
      "Ġdisturb": 1196,
      "Ġenvironmental": 1197,
      "Ġcommand": 1198,
      "Ġruns": 1199,
      "Ġspec": 1200,
      "Ġfeat": 1201,
      "Ġcurrent": 1202,
      "ontrol": 1203,
      "Ġreceiver": 1204,
      "Ġstudent": 1205,
      "Ġsignal": 1206,
      "ĠNavigator": 1207,
      "86": 1208,
      "DOF": 1209,
      "evel": 1210,
      "ip": 1211,
      "âĪ": 1212,
      "Ġ/": 1213,
      "infor": 1214,
      "Ġdoc": 1215,
      "Ġinit": 1216,
      "Ġbod": 1217,
      "Ġwind": 1218,
      "utor": 1219,
      "cement": 1220,
      "ĠCom": 1221,
      "odocking": 1222,
      "Ġno": 1223,
      "ĠGPU": 1224,
      "Ġdegre": 1225,
      "Ġavoidance": 1226,
      "ĠAutodocking": 1227,
      "Ġdeployment": 1228,
      "Ġexecutor": 1229,
      "Ġsurface": 1230,
      "âĪĴ": 1231,
      "inforcement": 1232,
      "Ġbody": 1233,
      "Ġdegrees": 1234,
      "25": 1235,
      "Id": 1236,
      "SV": 1237,
      "ever": 1238,
      "ges": 1239,
      "jam": 1240,
      "pull": 1241,
      "sion": 1242,
      "ten": 1243,
      "erthing": 1244,
      "enjam": 1245,
      "Ġcell": 1246,
      "Ġother": 1247,
      "Ġlight": 1248,
      "Ġlaunch": 1249,
      "Ġprop": 1250,
      "olab": 1251,
      "ĠBenjam": 1252,
      "Ġthat": 1253,
      "ĠCPU": 1254,
      "ĠName": 1255,
      "tern": 1256,
      "Ġstor": 1257,
      "ily": 1258,
      "ĠStere": 1259,
      "Ġenable": 1260,
      "Ġwhat": 1261,
      "Ġrobotics": 1262,
      "Ġsafe": 1263,
      "ĠSystemId": 1264,
      "Ġinternet": 1265,
      "Ġvisual": 1266,
      "ĠCOLAV": 1267,
      "olabs": 1268,
      "ĠBenjamin": 1269,
      "ĠStereolabs": 1270,
      "),": 1271,
      "03": 1272,
      "Lin": 1273,
      "Sight": 1274,
      "ber": 1275,
      "based": 1276,
      "cal": 1277,
      "com": 1278,
      "med": 1279,
      "rate": 1280,
      "senti": 1281,
      "up": 1282,
      "ument": 1283,
      "hed": 1284,
      "Ġcel": 1285,
      "Ġpay": 1286,
      "Ġport": 1287,
      "Ġany": 1288,
      "Ġinst": 1289,
      "Ġbu": 1290,
      "Ġwr": 1291,
      "Ġprogram": 1292,
      "Ġconver": 1293,
      "ithium": 1294,
      "Ġyaw": 1295,
      "ĠLOS": 1296,
      "ĠLine": 1297,
      "Ġenh": 1298,
      "Ġenables": 1299,
      "Ġdef": 1300,
      "Ġground": 1301,
      "iffer": 1302,
      "Ġadapt": 1303,
      "Ġmodels": 1304,
      "Ġfile": 1305,
      "Ġoperate": 1306,
      "Ġenvironments": 1307,
      "Ġprocessing": 1308,
      "Ġincluding": 1309,
      "ĠAutonomous": 1310,
      "Ġadvant": 1311,
      "Ġconstrain": 1312,
      "Ġcontainers": 1313,
      "Ġdevelopment": 1314,
      "Ġsmall": 1315,
      "Ġsettings": 1316,
      "Ġcommunication": 1317,
      "Ġdocument": 1318,
      "Ġnoise": 1319,
      "037": 1320,
      "cale": 1321,
      "Ġpayload": 1322,
      "BC": 1323,
      "cing": 1324,
      "cur": 1325,
      "down": 1326,
      "eat": 1327,
      "gg": 1328,
      "ule": 1329,
      "weg": 1330,
      "ĠUn": 1331,
      "isation": 1332,
      "ional": 1333,
      "Ġfold": 1334,
      "Ġmed": 1335,
      "Ġinput": 1336,
      "Ġberthing": 1337,
      "Ġhum": 1338,
      "Ġrequ": 1339,
      "Ġequ": 1340,
      "ĠNot": 1341,
      "ĠSBC": 1342,
      "ays": 1343,
      "Ġhapp": 1344,
      "Ġmodule": 1345,
      "ollow": 1346,
      "Ġmaneu": 1347,
      "Ġdetection": 1348,
      "ĠFast": 1349,
      "Ġneur": 1350,
      "Ġ12": 1351,
      "Ġframes": 1352,
      "ibration": 1353,
      "Ġhandle": 1354,
      "Ġsupervised": 1355,
      "Ġtwin": 1356,
      "Ġcalibration": 1357,
      "ermin": 1358,
      "Ġenclosure": 1359,
      "ĠNorweg": 1360,
      "Reference": 1361,
      "Ġsingle": 1362,
      "ĠNorwegian": 1363,
      "hor": 1364,
      "king": 1365,
      "oper": 1366,
      "xt": 1367,
      "Ġ8": 1368,
      "Ġj": 1369,
      "Ġsec": 1370,
      "Ġlar": 1371,
      "ams": 1372,
      "omet": 1373,
      "Ġhere": 1374,
      "acity": 1375,
      "Ġvect": 1376,
      "ĠSt": 1377,
      "ĠGood": 1378,
      "rial": 1379,
      "Ġtrack": 1380,
      "Ġsuch": 1381,
      "Ġrout": 1382,
      "Ġvessels": 1383,
      "itional": 1384,
      "Ġshut": 1385,
      "cipl": 1386,
      "Ġphysically": 1387,
      "Ġtypes": 1388,
      "ired": 1389,
      "Ġoffers": 1390,
      "Ġcapacity": 1391,
      "Ġpositioning": 1392,
      "Ġquestions": 1393,
      "Ġdisturbances": 1394,
      "iency": 1395,
      "less": 1396,
      "pal": 1397,
      "se": 1398,
      "tal": 1399,
      "ters": 1400,
      "tical": 1401,
      "Ġcapt": 1402,
      "ised": 1403,
      "ications": 1404,
      "anos": 1405,
      "arily": 1406,
      "Ġang": 1407,
      "Ġlist": 1408,
      "Ġtotal": 1409,
      "Ġnanos": 1410,
      "ĠTechn": 1411,
      "ill": 1412,
      "ĠSVO": 1413,
      "Ġenc": 1414,
      "Ġend": 1415,
      "pth": 1416,
      "Ġdepth": 1417,
      "pping": 1418,
      "Ġquality": 1419,
      "ponent": 1420,
      "ximum": 1421,
      "Ġreli": 1422,
      "Ġmaximum": 1423,
      "Ġprimarily": 1424,
      "cipal": 1425,
      "Ġconfigurations": 1426,
      "Ġensuring": 1427,
      "Ġhandles": 1428,
      "Ġdeployed": 1429,
      "Ġfilter": 1430,
      "Ġachieved": 1431,
      "Ġvertical": 1432,
      "readed": 1433,
      "Ġscenarios": 1434,
      "Ġlanguage": 1435,
      "Ġbuil": 1436,
      "Ġconstraints": 1437,
      "ciplin": 1438,
      "Ġnanosecond": 1439,
      "ĠTechnology": 1440,
      "64": 1441,
      "dust": 1442,
      "ew": 1443,
      "fix": 1444,
      "hav": 1445,
      "lar": 1446,
      "ng": 1447,
      "pber": 1448,
      "sues": 1449,
      "weight": 1450,
      "Ġed": 1451,
      "onit": 1452,
      "orre": 1453,
      "oriz": 1454,
      "Ġclu": 1455,
      "Ġsway": 1456,
      "Ġfa": 1457,
      "Ġmy": 1458,
      "Ġmonit": 1459,
      "ities": 1460,
      "Ġbet": 1461,
      "Ġbollard": 1462,
      "Ġissues": 1463,
      "Ġhoriz": 1464,
      "ĠRas": 1465,
      "lum": 1466,
      "lular": 1467,
      "ulsion": 1468,
      "Ġname": 1469,
      "Ġrest": 1470,
      "Ġeach": 1471,
      "ĠLower": 1472,
      "Ġstrate": 1473,
      "ĠPi": 1474,
      "ĠMAV": 1475,
      "abled": 1476,
      "ĠGPI": 1477,
      "pped": 1478,
      "Ġbehav": 1479,
      "Ġmicrosecond": 1480,
      "Ġtesting": 1481,
      "alled": 1482,
      "Ġdetail": 1483,
      "Ġruntime": 1484,
      "ĠEng": 1485,
      "Ġaccurate": 1486,
      "Ġadditional": 1487,
      "Ġpublish": 1488,
      "Ġallowing": 1489,
      "Ġcomponents": 1490,
      "Ġheading": 1491,
      "Ġclock": 1492,
      "oving": 1493,
      "Ġminim": 1494,
      "Ġpropulsion": 1495,
      "Link": 1496,
      "Ġcellular": 1497,
      "Ġadvantage": 1498,
      "Ġtracking": 1499,
      "pberry": 1500,
      "Ġmonitor": 1501,
      "Ġbetter": 1502,
      "ĠRaspberry": 1503,
      "ĠMAVLink": 1504,
      "ĠGPIO": 1505,
      "Ġmicroseconds": 1506,
      "ling": 1507,
      "nes": 1508,
      "ness": 1509,
      "ok": 1510,
      "ric": 1511,
      "ted": 1512,
      "yth": 1513,
      "ines": 1514,
      "Ġaff": 1515,
      "ĠASV": 1516,
      "Ġcar": 1517,
      "Ġcent": 1518,
      "Ġpoint": 1519,
      "Ġob": 1520,
      "Ġloc": 1521,
      "etnes": 1522,
      "Ġprofessor": 1523,
      "idth": 1524,
      "Ġnum": 1525,
      "ason": 1526,
      "ĠTails": 1527,
      "ĠLetnes": 1528,
      "ĠDC": 1529,
      "channel": 1530,
      "ĠPyth": 1531,
      "grad": 1532,
      "Ġexp": 1533,
      "Ġwho": 1534,
      "Ġpart": 1535,
      "Ġmean": 1536,
      "Ġassign": 1537,
      "Ġensure": 1538,
      "Ġtechnical": 1539,
      "Ġexperim": 1540,
      "Ġcompression": 1541,
      "Ġefficiency": 1542,
      "Ġdistribution": 1543,
      "Ġharbour": 1544,
      "iversity": 1545,
      "Ġsteps": 1546,
      "medi": 1547,
      "Ġmedian": 1548,
      "ĠTailscale": 1549,
      "ĠPython": 1550,
      "DI": 1551,
      "IDI": 1552,
      "VIDI": 1553,
      "day": 1554,
      "ful": 1555,
      "og": 1556,
      "pec": 1557,
      "res": 1558,
      "rch": 1559,
      "uan": 1560,
      "Ġche": 1561,
      "Ġcol": 1562,
      "Ġcallback": 1563,
      "ree": 1564,
      "edom": 1565,
      "Ġfollow": 1566,
      "itect": 1567,
      "ally": 1568,
      "Ġbest": 1569,
      "imin": 1570,
      "Ġlay": 1571,
      "Ġtoday": 1572,
      "Ġisol": 1573,
      "Ġreference": 1574,
      "lex": 1575,
      "ĠLuan": 1576,
      "ĠNVIDI": 1577,
      "term": 1578,
      "ĠPoint": 1579,
      "izing": 1580,
      "Ġsense": 1581,
      "ife": 1582,
      "ified": 1583,
      "encies": 1584,
      "olog": 1585,
      "agnet": 1586,
      "ello": 1587,
      "Ġchannel": 1588,
      "Ġwaterpro": 1589,
      "rypt": 1590,
      "Ġmultiple": 1591,
      "Ġtopics": 1592,
      "Ġincludes": 1593,
      "ways": 1594,
      "Ġtwo": 1595,
      "Ġachieve": 1596,
      "Ġfreedom": 1597,
      "Ġefficient": 1598,
      "Ġmounted": 1599,
      "Ġapplications": 1600,
      "TimeReference": 1601,
      "Ġdiagnostics": 1602,
      "ĠObstacle": 1603,
      "Ġspecific": 1604,
      "ifferential": 1605,
      "rchitect": 1606,
      "ĠNVIDIA": 1607,
      "Ġwaterproof": 1608,
      "rchitecture": 1609,
      "20": 1610,
      "PA": 1611,
      "ax": 1612,
      "band": 1613,
      "box": 1614,
      "ched": 1615,
      "dri": 1616,
      "eb": 1617,
      "gest": 1618,
      "ience": 1619,
      "mit": 1620,
      "mers": 1621,
      "obst": 1622,
      "rist": 1623,
      "rical": 1624,
      "sh": 1625,
      "so": 1626,
      "syn": 1627,
      "tight": 1628,
      "vision": 1629,
      "wor": 1630,
      "Ġ9": 1631,
      "Ġenti": 1632,
      "Ġta": 1633,
      "ĠAb": 1634,
      "ĠUAR": 1635,
      "Ġcoll": 1636,
      "Ġcould": 1637,
      "roach": 1638,
      "Ġful": 1639,
      "Ġfull": 1640,
      "Ġfact": 1641,
      "Ġmagnet": 1642,
      "Ġbase": 1643,
      "amp": 1644,
      "olution": 1645,
      "ĠBy": 1646,
      "Ġconvers": 1647,
      "urance": 1648,
      "ectrical": 1649,
      "Ġthan": 1650,
      "fort": 1651,
      "ĠDes": 1652,
      "ĠMar": 1653,
      "ĠHowever": 1654,
      "ĠSur": 1655,
      "ĠSPI": 1656,
      "Ġcompute": 1657,
      "Ġcompared": 1658,
      "andom": 1659,
      "istent": 1660,
      "izes": 1661,
      "ization": 1662,
      "Ġprovided": 1663,
      "ify": 1664,
      "Ġwhere": 1665,
      "Ġwhile": 1666,
      "Ġros": 1667,
      "ĠNMC": 1668,
      "Ġunobst": 1669,
      "Ġsimulated": 1670,
      "ĠKrist": 1671,
      "Ġplay": 1672,
      "Ġintegrated": 1673,
      "Ġdetermin": 1674,
      "Ġconnection": 1675,
      "Ġnew": 1676,
      "Ġreco": 1677,
      "ended": 1678,
      "Ġlikely": 1679,
      "ĠJan": 1680,
      "Ġtransfer": 1681,
      "Ġtrained": 1682,
      "Ġremotely": 1683,
      "ientation": 1684,
      "Ġserved": 1685,
      "ructed": 1686,
      "Ġdistribut": 1687,
      "Ġmounting": 1688,
      "Ġconsistent": 1689,
      "Ġcreated": 1690,
      "Ġdependencies": 1691,
      "Ġhappens": 1692,
      "Ġneuron": 1693,
      "Ġsecure": 1694,
      "Ġendurance": 1695,
      "Ġisolates": 1696,
      "Ġentire": 1697,
      "ĠUART": 1698,
      "Ġfully": 1699,
      "Ġunobstructed": 1700,
      "ĠKristian": 1701,
      "'re": 1702,
      "200": 1703,
      "DP": 1704,
      "bed": 1705,
      "bun": 1706,
      "just": 1707,
      "lare": 1708,
      "oal": 1709,
      "tu": 1710,
      "uch": 1711,
      "uard": 1712,
      "vent": 1713,
      "ward": 1714,
      "ĠÎ": 1715,
      "Ġtas": 1716,
      "Ġterm": 1717,
      "inu": 1718,
      "inal": 1719,
      "ergy": 1720,
      "enal": 1721,
      "ĠUDP": 1722,
      "ĠUbun": 1723,
      "Ġpenal": 1724,
      "Ġdel": 1725,
      "anced": 1726,
      "ancing": 1727,
      "Ġmuch": 1728,
      "Ġins": 1729,
      "Ġbal": 1730,
      "ough": 1731,
      "stand": 1732,
      "ome": 1733,
      "Ġhy": 1734,
      "Ġhow": 1735,
      "Ġreg": 1736,
      "Ġreinforcement": 1737,
      "ode": 1738,
      "odel": 1739,
      "perform": 1740,
      "ĠDelt": 1741,
      "tered": 1742,
      "Ġstation": 1743,
      "ĠPre": 1744,
      "ĠPrin": 1745,
      "Ġusage": 1746,
      "verage": 1747,
      "Ġenergy": 1748,
      "Ġareas": 1749,
      "istic": 1750,
      "Ġorientation": 1751,
      "ineer": 1752,
      "threaded": 1753,
      "Ġadjust": 1754,
      "Ġcoast": 1755,
      "Ġrobot": 1756,
      "Ġauthor": 1757,
      "ctions": 1758,
      "Ġdescrib": 1759,
      "ording": 1760,
      "ĠFor": 1761,
      "Ġoperation": 1762,
      "visor": 1763,
      "ially": 1764,
      "ĠAnalysis": 1765,
      "oints": 1766,
      "Ġfeel": 1767,
      "Ġtechnology": 1768,
      "Ġexperience": 1769,
      "Ġpriority": 1770,
      "ructure": 1771,
      "Ġcomponent": 1772,
      "Ġoutput": 1773,
      "Ġtext": 1774,
      "Ġpolicy": 1775,
      "Ġiniti": 1776,
      "ĠComponent": 1777,
      "Ġadapted": 1778,
      "Ġ128": 1779,
      "Ġshutdown": 1780,
      "Ġangular": 1781,
      "Ġbehavior": 1782,
      "Ġchannels": 1783,
      "Ġtasks": 1784,
      "ĠUbuntu": 1785,
      "ĠDelta": 1786,
      "ĠPrincipal": 1787,
      "Ġcoastal": 1788,
      "71": 1789,
      "LOS": 1790,
      "ault": 1791,
      "ble": 1792,
      "bag": 1793,
      "cell": 1794,
      "control": 1795,
      "eep": 1796,
      "rated": 1797,
      "wo": 1798,
      "Ġes": 1799,
      "Ġgr": 1800,
      "Ġtun": 1801,
      "onfig": 1802,
      "Ġalum": 1803,
      "enabled": 1804,
      "Ġcand": 1805,
      "Ġcorre": 1806,
      "Ġsam": 1807,
      "Ġsun": 1808,
      "Ġsize": 1809,
      "real": 1810,
      "Ġdock": 1811,
      "Ġfac": 1812,
      "Ġmet": 1813,
      "Ġmach": 1814,
      "Ġanalysis": 1815,
      "Ġindust": 1816,
      "Ġway": 1817,
      "eline": 1818,
      "Ġop": 1819,
      "Ġprof": 1820,
      "Ġreason": 1821,
      "Ġreward": 1822,
      "ided": 1823,
      "ident": 1824,
      "idate": 1825,
      "Ġoffer": 1826,
      "Ġval": 1827,
      "Ġrud": 1828,
      "Ġrating": 1829,
      "Ġrays": 1830,
      "ĠTr": 1831,
      "ĠTwo": 1832,
      "Ġevery": 1833,
      "Ġstack": 1834,
      "Ġstatic": 1835,
      "Ġcomput": 1836,
      "jective": 1837,
      "pps": 1838,
      "Ġprojects": 1839,
      "ification": 1840,
      "uss": 1841,
      "ĠIntegr": 1842,
      "âĢĵ": 1843,
      "acement": 1844,
      "Ġvirt": 1845,
      "aph": 1846,
      "Ġintegrator": 1847,
      "Ġdetect": 1848,
      "ĠProport": 1849,
      "Ġ25": 1850,
      "ledge": 1851,
      "Ġinclude": 1852,
      "cience": 1853,
      "Ġlimited": 1854,
      "Ġprotect": 1855,
      "Ġposs": 1856,
      "Ġexpert": 1857,
      "Ġcurrents": 1858,
      "Ġcontainer": 1859,
      "Ġknowledge": 1860,
      "Ġmotors": 1861,
      "Ġallows": 1862,
      "Ġsea": 1863,
      "Ġenclosures": 1864,
      "Ġheadings": 1865,
      "linear": 1866,
      "Ġdiagnostic": 1867,
      "Ġtypically": 1868,
      "Ġinstalled": 1869,
      "Ġdefault": 1870,
      "Ġrequired": 1871,
      "Ġmaneuver": 1872,
      "Ġlarge": 1873,
      "Ġencrypt": 1874,
      "Ġreliability": 1875,
      "fixed": 1876,
      "Ġobjective": 1877,
      "pecially": 1878,
      "drift": 1879,
      "world": 1880,
      "ĠAbout": 1881,
      "Ġrosbag": 1882,
      "Ġdeterministic": 1883,
      "Ġespecially": 1884,
      "Ġalumin": 1885,
      "Ġcandidate": 1886,
      "Ġsampl": 1887,
      "Ġindustrial": 1888,
      "Ġvirtual": 1889,
      "ĠProportional": 1890,
      "Guard": 1891,
      "ders": 1892,
      "gps": 1893,
      "ope": 1894,
      "por": 1895,
      "sw": 1896,
      "to": 1897,
      "Ġrol": 1898,
      "Ġart": 1899,
      "ores": 1900,
      "enri": 1901,
      "Ġsw": 1902,
      "Ġsenti": 1903,
      "Ġms": 1904,
      "Ġmus": 1905,
      "Ġmys": 1906,
      "ĠWire": 1907,
      "Ġanim": 1908,
      "Ġansw": 1909,
      "Ġweat": 1910,
      "eli": 1911,
      "Ġle": 1912,
      "Ġlevel": 1913,
      "Ġlithium": 1914,
      "aced": 1915,
      "ĠBollard": 1916,
      "Ġvibr": 1917,
      "ĠCl": 1918,
      "ĠControl": 1919,
      "Ġrate": 1920,
      "aged": 1921,
      "ĠHenri": 1922,
      "Ġstance": 1923,
      "Ġusers": 1924,
      "Ġcompact": 1925,
      "Ġgre": 1926,
      "Ġthese": 1927,
      "Ġalso": 1928,
      "Ġinteract": 1929,
      "Ġlost": 1930,
      "Ġloop": 1931,
      "ĠIts": 1932,
      "ulty": 1933,
      "cloud": 1934,
      "Ġoperator": 1935,
      "Ġrecom": 1936,
      "Ġ14": 1937,
      "ĠDoes": 1938,
      "ailable": 1939,
      "Ġtimest": 1940,
      "Ġhelpful": 1941,
      "Ġguaran": 1942,
      "ervice": 1943,
      "ound": 1944,
      "Ġensures": 1945,
      "Ġdispl": 1946,
      "Ġdisciplin": 1947,
      "effort": 1948,
      "Ġagain": 1949,
      "Ġavailable": 1950,
      "anges": 1951,
      "Ġimplemented": 1952,
      "Ġadvice": 1953,
      "Ġgeneral": 1954,
      "Ġdeveloped": 1955,
      "Ġready": 1956,
      "Ġelimin": 1957,
      "Ġmotor": 1958,
      "Ġdiscuss": 1959,
      "Ġvarious": 1960,
      "Ġmeasure": 1961,
      "Ġmeasured": 1962,
      "cribe": 1963,
      "Ġimprove": 1964,
      "Ġfeature": 1965,
      "Ġsignals": 1966,
      "Ġlightweight": 1967,
      "Ġconverters": 1968,
      "Ġinputs": 1969,
      "Ġvector": 1970,
      "Ġdetailed": 1971,
      "Ġpublishes": 1972,
      "Ġmonitoring": 1973,
      "Ġlayers": 1974,
      "Ġneurons": 1975,
      "Ġrudders": 1976,
      "Ġcomputational": 1977,
      "Ġroll": 1978,
      "Ġmusic": 1979,
      "Ġmyself": 1980,
      "ĠWireGuard": 1981,
      "Ġanimal": 1982,
      "Ġanswer": 1983,
      "Ġweather": 1984,
      "Ġvibrations": 1985,
      "ĠHenrik": 1986,
      "Ġguarante": 1987,
      "Ġdisciplining": 1988,
      "NTNU": 1989,
      "TP": 1990,
      "`.": 1991,
      "br": 1992,
      "data": 1993,
      "fr": 1994,
      "ia": 1995,
      "iform": 1996,
      "ming": 1997,
      "rates": 1998,
      "ratic": 1999,
      "sol": 2000,
      "voidance": 2001,
      "wall": 2002,
      "Ġter": 2003,
      "atas": 2004,
      "atics": 2005,
      "onst": 2006,
      "Ġaround": 2007,
      "Ġarchitecture": 2008,
      "ĠAvoidance": 2009,
      "ĠUSV": 2010,
      "Ġcase": 2011,
      "Ġsel": 2012,
      "Ġsection": 2013,
      "rewall": 2014,
      "Ġpo": 2015,
      "Ġpure": 2016,
      "Ġdur": 2017,
      "Ġdatas": 2018,
      "Ġmost": 2019,
      "aris": 2020,
      "Ġwidth": 2021,
      "Ġlos": 2022,
      "uture": 2023,
      "acing": 2024,
      "Ġreach": 2025,
      "idges": 2026,
      "Ġrad": 2027,
      "fore": 2028,
      "oth": 2029,
      "adratic": 2030,
      "ĠScience": 2031,
      "Ġcontrib": 2032,
      "ĠVeg": 2033,
      "istance": 2034,
      "Ġbeams": 2035,
      "Ġbefore": 2036,
      "quency": 2037,
      "Ġlog": 2038,
      "Ġwaters": 2039,
      "Ġview": 2040,
      "apter": 2041,
      "Ġquadratic": 2042,
      "Ġfirewall": 2043,
      "Ġconnects": 2044,
      "Ġconnected": 2045,
      "Ġoperations": 2046,
      "Ġpres": 2047,
      "ĠReal": 2048,
      "Ġapproximately": 2049,
      "Ġmake": 2050,
      "Ġlater": 2051,
      "Ġpacket": 2052,
      "Ġavo": 2053,
      "Ġloads": 2054,
      "Ġunderstand": 2055,
      "Ġneeded": 2056,
      "Ġsurge": 2057,
      "Ġfiles": 2058,
      "Ġreceive": 2059,
      "Ġservice": 2060,
      "Ġdriver": 2061,
      "Ġoutperform": 2062,
      "Ġrecording": 2063,
      "modal": 2064,
      "arting": 2065,
      "Ġpolicies": 2066,
      "Ġbridges": 2067,
      "Ġhousing": 2068,
      "Ġactive": 2069,
      "Ġfeatures": 2070,
      "Ġprogramming": 2071,
      "ĠUniversity": 2072,
      "ometer": 2073,
      "Ġcapture": 2074,
      "Ġedge": 2075,
      "Ġrestarting": 2076,
      "Ġstrategy": 2077,
      "grade": 2078,
      "Ġconversion": 2079,
      "Ġdistributed": 2080,
      "Ġhybr": 2081,
      "Ġprofile": 2082,
      "Ġexpertise": 2083,
      "Ġterms": 2084,
      "Ġdatasets": 2085,
      "ĠVegar": 2086,
      "Ġhybrid": 2087,
      "CH": 2088,
      "FI": 2089,
      "FO": 2090,
      "MS": 2091,
      "PM": 2092,
      "Py": 2093,
      "ey": 2094,
      "ha": 2095,
      "ilu": 2096,
      "iqu": 2097,
      "ob": 2098,
      "ring": 2099,
      "speed": 2100,
      "ti": 2101,
      "tain": 2102,
      "Â°": 2103,
      "Â±": 2104,
      "ĠÂ±": 2105,
      "Ġtel": 2106,
      "Ġtell": 2107,
      "inello": 2108,
      "erial": 2109,
      "hem": 2110,
      "Ġcm": 2111,
      "Ġcru": 2112,
      "Ġcode": 2113,
      "Ġso": 2114,
      "Ġpul": 2115,
      "Ġdr": 2116,
      "rot": 2117,
      "rote": 2118,
      "Ġfus": 2119,
      "Ġfails": 2120,
      "Ġmay": 2121,
      "Ġmoving": 2122,
      "ĠWhere": 2123,
      "Ġbox": 2124,
      "Ġboth": 2125,
      "Ġwrote": 2126,
      "sters": 2127,
      "imet": 2128,
      "Ġlow": 2129,
      "amps": 2130,
      "Ġhas": 2131,
      "Ġhost": 2132,
      "Ġhidd": 2133,
      "ĠRL": 2134,
      "ĠReli": 2135,
      "owers": 2136,
      "Ġthread": 2137,
      "ules": 2138,
      "ulations": 2139,
      "Ġrend": 2140,
      "Ġrandom": 2141,
      "Ġrules": 2142,
      "ĠTime": 2143,
      "ocal": 2144,
      "ĠHum": 2145,
      "ĠHardware": 2146,
      "ĠHPI": 2147,
      "Ġemot": 2148,
      "ĠLearning": 2149,
      "ĠLithium": 2150,
      "ĠNum": 2151,
      "ĠDeep": 2152,
      "chest": 2153,
      "Ġstate": 2154,
      "ĠMB": 2155,
      "ments": 2156,
      "ĠSim": 2157,
      "ĠGMS": 2158,
      "Ġeng": 2159,
      "ĠVessel": 2160,
      "ĠVia": 2161,
      "Ġorchest": 2162,
      "Ġpreload": 2163,
      "Ġalways": 2164,
      "Ġcoax": 2165,
      "Ġrole": 2166,
      "Ġlogg": 2167,
      "ĠOn": 2168,
      "Ġunit": 2169,
      "ults": 2170,
      "Ġimmers": 2171,
      "Ġkey": 2172,
      "Ġscann": 2173,
      "Ġmanage": 2174,
      "Ġmanages": 2175,
      "allen": 2176,
      "viation": 2177,
      "Ġchallen": 2178,
      "Ġconnectors": 2179,
      "Ġoperational": 2180,
      "Ġwatertight": 2181,
      "ĠReinforcement": 2182,
      "Ġresearcher": 2183,
      "Ġupdated": 2184,
      "Ġrelative": 2185,
      "ourage": 2186,
      "Ġsetup": 2187,
      "Ġ500": 2188,
      "Ġsupervision": 2189,
      "Ġguided": 2190,
      "epar": 2191,
      "Ġshared": 2192,
      "Ġprocesses": 2193,
      "Ġperformed": 2194,
      "Ġcurves": 2195,
      "Ġspacing": 2196,
      "Ġtechniqu": 2197,
      "Ġaddress": 2198,
      "Ġgenerate": 2199,
      "Ġcoordination": 2200,
      "Ġcoordinate": 2201,
      "Ġreading": 2202,
      "Ġnavigate": 2203,
      "Ġformats": 2204,
      "Ġpublication": 2205,
      "Ġdrift": 2206,
      "Ġembed": 2207,
      "ĠNorway": 2208,
      "Ġapplied": 2209,
      "Ġscenario": 2210,
      "Ġtools": 2211,
      "ĠCompose": 2212,
      "Ġwra": 2213,
      "Ġwrite": 2214,
      "Ġ80": 2215,
      "Ġclusters": 2216,
      "Ġfailu": 2217,
      "Ġhorizon": 2218,
      "Ġcentimet": 2219,
      "Ġexperiment": 2220,
      "mitted": 2221,
      "Ġtake": 2222,
      "Ġmagnetic": 2223,
      "amping": 2224,
      "ĠMarinello": 2225,
      "ĠSurface": 2226,
      "Ġrecovery": 2227,
      "ĠÎ±": 2228,
      "Ġinside": 2229,
      "Ġbalancing": 2230,
      "ineering": 2231,
      "Ġpossible": 2232,
      "Ġlead": 2233,
      "Ġtimestamps": 2234,
      "Ġagainst": 2235,
      "Ġeliminates": 2236,
      "Ġselected": 2237,
      "Ġoutperformed": 2238,
      "CHED": 2239,
      "FIFO": 2240,
      "Ġfusion": 2241,
      "Ġhidden": 2242,
      "ĠReliable": 2243,
      "ĠHPIPM": 2244,
      "ĠNumPy": 2245,
      "ĠGMSL": 2246,
      "Ġorchestrates": 2247,
      "Ġpreloaded": 2248,
      "Ġcoaxial": 2249,
      "Ġimmersion": 2250,
      "Ġscanner": 2251,
      "Ġtechnique": 2252,
      "Ġfailure": 2253,
      "BX": 2254,
      "Cl": 2255,
      "LU": 2256,
      "PCA": 2257,
      "TC": 2258,
      "bal": 2259,
      "beat": 2260,
      "fic": 2261,
      "ivel": 2262,
      "kes": 2263,
      "low": 2264,
      "launch": 2265,
      "life": 2266,
      "py": 2267,
      "points": 2268,
      "ror": 2269,
      "the": 2270,
      "tensive": 2271,
      "Ġ=": 2272,
      "Ġer": 2273,
      "Ġest": 2274,
      "intensive": 2275,
      "erical": 2276,
      "eries": 2277,
      "erts": 2278,
      "ĠUBX": 2279,
      "Ġcle": 2280,
      "Ġsect": 2281,
      "Ġsecond": 2282,
      "Ġthem": 2283,
      "Ġpa": 2284,
      "Ġps": 2285,
      "Ġdire": 2286,
      "icit": 2287,
      "anch": 2288,
      "ange": 2289,
      "anning": 2290,
      "ants": 2291,
      "Ġmo": 2292,
      "itter": 2293,
      "Ġbas": 2294,
      "eler": 2295,
      "ecess": 2296,
      "Ġlive": 2297,
      "Ġline": 2298,
      "Ġlaw": 2299,
      "ampere": 2300,
      "utes": 2301,
      "Ġrep": 2302,
      "Ġublox": 2303,
      "igm": 2304,
      "Ġnecess": 2305,
      "Ġright": 2306,
      "Ġranges": 2307,
      "ass": 2308,
      "perception": 2309,
      "other": 2310,
      "Ġwithin": 2311,
      "Ġstructure": 2312,
      "ilit": 2313,
      "ĠPCA": 2314,
      "abor": 2315,
      "abling": 2316,
      "ĠSCHED": 2317,
      "ĠGive": 2318,
      "Ġcompat": 2319,
      "Ġcomplex": 2320,
      "Ġconte": 2321,
      "rix": 2322,
      "ries": 2323,
      "Ġprevent": 2324,
      "Ġabsol": 2325,
      "rong": 2326,
      "Ġalerts": 2327,
      "quential": 2328,
      "Ġtraf": 2329,
      "Ġresolution": 2330,
      "Ġcontrolled": 2331,
      "off": 2332,
      "Ġaccom": 2333,
      "Ġheart": 2334,
      "Ġmodeling": 2335,
      "elled": 2336,
      "Ġunmod": 2337,
      "ibility": 2338,
      "Ġimmedi": 2339,
      "Ġwatch": 2340,
      "Ġsimulations": 2341,
      "ived": 2342,
      "Ġintegral": 2343,
      "lobal": 2344,
      "Ġfir": 2345,
      "Ġfix": 2346,
      "Ġ10": 2347,
      "Ġdistance": 2348,
      "ruction": 2349,
      "Ġsafely": 2350,
      "process": 2351,
      "Ġintensive": 2352,
      "Ġdeveloper": 2353,
      "Ġincluded": 2354,
      "iring": 2355,
      "Ġexecution": 2356,
      "Ġexecute": 2357,
      "Ġconstruction": 2358,
      "Ġpriorities": 2359,
      "Ġsequential": 2360,
      "Ġdrives": 2361,
      "Ġfrequency": 2362,
      "ĠThrough": 2363,
      "Ġharbor": 2364,
      "Ġsetting": 2365,
      "eights": 2366,
      "Ġvariance": 2367,
      "Ġexplicit": 2368,
      "Ġmatrix": 2369,
      "Ġeven": 2370,
      "Ġbranch": 2371,
      "Ġextr": 2372,
      "ĠObstacles": 2373,
      "Ġinitial": 2374,
      "Ġstorage": 2375,
      "Ġenhance": 2376,
      "Ġfolded": 2377,
      "Ġfoldable": 2378,
      "Ġjitter": 2379,
      "Ġbuild": 2380,
      "Ġaffected": 2381,
      "Ġlocation": 2382,
      "Ġnumerical": 2383,
      "Ġexpand": 2384,
      "Ġcallbacks": 2385,
      "synchron": 2386,
      "Ġcollabor": 2387,
      "Ġentirely": 2388,
      "Ġdescribed": 2389,
      "controller": 2390,
      "Ġcorrections": 2391,
      "Ġfacilit": 2392,
      "Ġmachines": 2393,
      "Ġwaypoints": 2394,
      "Ġopen": 2395,
      "Ġrecomm": 2396,
      "Ġcomputationally": 2397,
      "Ġguarantee": 2398,
      "Ġloss": 2399,
      "Cloud": 2400,
      "ively": 2401,
      "Ġerror": 2402,
      "Ġlinear": 2403,
      "Ġtraffic": 2404,
      "Ġheartbeat": 2405,
      "Ġunmodelled": 2406,
      "Ġexplicitly": 2407,
      "\"?": 2408,
      "35": 2409,
      "66": 2410,
      "93": 2411,
      "Blue": 2412,
      "CE": 2413,
      "ECE": 2414,
      "IM": 2415,
      "PPO": 2416,
      "ROS": 2417,
      "RTK": 2418,
      "System": 2419,
      "aut": 2420,
      "by": 2421,
      "cre": 2422,
      "ccur": 2423,
      "dre": 2424,
      "ee": 2425,
      "eel": 2426,
      "get": 2427,
      "geth": 2428,
      "glare": 2429,
      "had": 2430,
      "iam": 2431,
      "lor": 2432,
      "lectrical": 2433,
      "ns": 2434,
      "oeu": 2435,
      "pd": 2436,
      "sv": 2437,
      "service": 2438,
      "ue": 2439,
      "val": 2440,
      "vring": 2441,
      "wind": 2442,
      "yz": 2443,
      "Ġ-": 2444,
      "Ġut": 2445,
      "Ġident": 2446,
      "Ġtar": 2447,
      "inem": 2448,
      "inks": 2449,
      "erive": 2450,
      "ester": 2451,
      "ĠAround": 2452,
      "orning": 2453,
      "Ġplu": 2454,
      "Ġpain": 2455,
      "Ġpowers": 2456,
      "Ġpass": 2457,
      "ises": 2458,
      "Ġdre": 2459,
      "Ġday": 2460,
      "Ġdown": 2461,
      "Ġdifferential": 2462,
      "Ġderive": 2463,
      "rop": 2464,
      "icular": 2465,
      "Ġfast": 2466,
      "Ġfood": 2467,
      "Ġmit": 2468,
      "Ġmorning": 2469,
      "itime": 2470,
      "ĠWith": 2471,
      "ĠWhen": 2472,
      "ĠWill": 2473,
      "alyz": 2474,
      "Ġanalyz": 2475,
      "Ġindic": 2476,
      "Ġbo": 2477,
      "Ġwav": 2478,
      "Ġwell": 2479,
      "Ġword": 2480,
      "Ġoccur": 2481,
      "Ġlinks": 2482,
      "Ġproxim": 2483,
      "Ġproble": 2484,
      "Ġhol": 2485,
      "accur": 2486,
      "aculty": 2487,
      "oating": 2488,
      "ĠRes": 2489,
      "ĠRud": 2490,
      "olf": 2491,
      "Ġconcept": 2492,
      "ides": 2493,
      "Ġthere": 2494,
      "Ġthings": 2495,
      "Ġthree": 2496,
      "Ġvision": 2497,
      "ash": 2498,
      "ĠTay": 2499,
      "agen": 2500,
      "perating": 2501,
      "ĠHoff": 2502,
      "ĠHagen": 2503,
      "ĠNED": 2504,
      "ĠDifferential": 2505,
      "Ġcomb": 2506,
      "Ġstat": 2507,
      "ĠPolic": 2508,
      "ĠMoving": 2509,
      "ĠModel": 2510,
      "ĠMester": 2511,
      "ĠGav": 2512,
      "ĠGoal": 2513,
      "ĠGlobal": 2514,
      "Ġenabling": 2515,
      "Ġcompl": 2516,
      "Ġdev": 2517,
      "ĠVo": 2518,
      "ĠVIM": 2519,
      "Ġgo": 2520,
      "Ġbeam": 2521,
      "Ġmodular": 2522,
      "ocks": 2523,
      "Ġmicroampere": 2524,
      "Ġadvisor": 2525,
      "Ġsub": 2526,
      "ĠInformation": 2527,
      "ĠInaccur": 2528,
      "Ġcook": 2529,
      "Ġcoverage": 2530,
      "Ġintermedi": 2531,
      "Ġmodeled": 2532,
      "ĠOptim": 2533,
      "ĠOperating": 2534,
      "Ġscal": 2535,
      "Ġscans": 2536,
      "Ġscient": 2537,
      "Ġscores": 2538,
      "Ġmanaged": 2539,
      "Ġmanoeu": 2540,
      "Ġautonomously": 2541,
      "geomet": 2542,
      "ĠKhad": 2543,
      "ĠKinem": 2544,
      "Ġdetected": 2545,
      "ĠProxim": 2546,
      "Ġ266": 2547,
      "ĠFaculty": 2548,
      "Ġreconfig": 2549,
      "Ġmainten": 2550,
      "ĠAndre": 2551,
      "Ġapproach": 2552,
      "Ġmaking": 2553,
      "ĠElectrical": 2554,
      "Ġpackets": 2555,
      "Ġsport": 2556,
      "Ġagents": 2557,
      "Ġhandled": 2558,
      "derived": 2559,
      "Ġmaritime": 2560,
      "Ġhigher": 2561,
      "Ġworked": 2562,
      "ĠRobot": 2563,
      "Ġgenerates": 2564,
      "Ġreadings": 2565,
      "ontal": 2566,
      "Ġelse": 2567,
      "Ġcalc": 2568,
      "Ġmotion": 2569,
      "Ġsmell": 2570,
      "ĠThree": 2571,
      "Ġteach": 2572,
      "Ġconsid": 2573,
      "Ġexplain": 2574,
      "Ġdepends": 2575,
      "Ġlanguages": 2576,
      "Ġfloating": 2577,
      "Ġprediction": 2578,
      "Ġextended": 2579,
      "ternal": 2580,
      "Ġanything": 2581,
      "Ġmaneuvers": 2582,
      "Ġvectors": 2583,
      "Ġroutine": 2584,
      "Ġfaster": 2585,
      "Ġhorizontal": 2586,
      "ĠEnger": 2587,
      "ĠEngineering": 2588,
      "Ġcarry": 2589,
      "Ġparticular": 2590,
      "Ġassigns": 2591,
      "Ġchec": 2592,
      "ological": 2593,
      "Ġfactor": 2594,
      "ĠDesign": 2595,
      "Ġpenalt": 2596,
      "Ġdelivers": 2597,
      "Ġadjustment": 2598,
      "Ġauthored": 2599,
      "ĠTran": 2600,
      "ĠIntegral": 2601,
      "Ġencryption": 2602,
      "Ġaluminium": 2603,
      "Ġgreat": 2604,
      "Ġdisplacement": 2605,
      "Ġavoid": 2606,
      "Ġemotions": 2607,
      "ĠSimon": 2608,
      "Ġcentimeter": 2609,
      "Ġestim": 2610,
      "Ġsectors": 2611,
      "Ġbaseline": 2612,
      "Ġimmediately": 2613,
      "Ġextra": 2614,
      "BlueBoat": 2615,
      "ECEF": 2616,
      "gether": 2617,
      "Ġutil": 2618,
      "Ġplus": 2619,
      "Ġmitig": 2620,
      "ĠWilliam": 2621,
      "Ġwaves": 2622,
      "Ġproximity": 2623,
      "Ġholid": 2624,
      "ĠRudolf": 2625,
      "ĠTaylor": 2626,
      "ĠPolicy": 2627,
      "ĠGavin": 2628,
      "ĠInaccurate": 2629,
      "Ġintermediate": 2630,
      "ĠOptimisation": 2631,
      "Ġmanoeuvring": 2632,
      "geometry": 2633,
      "ĠKhadas": 2634,
      "ĠKinematics": 2635,
      "ĠProximal": 2636,
      "Ġreconfigure": 2637,
      "Ġmaintenance": 2638,
      "ĠAndreas": 2639,
      "Ġparticularly": 2640,
      "04": 2641,
      "AW": 2642,
      "CRI": 2643,
      "Pull": 2644,
      "SC": 2645,
      "Sh": 2646,
      "TS": 2647,
      "bit": 2648,
      "cular": 2649,
      "cording": 2650,
      "const": 2651,
      "dis": 2652,
      "dog": 2653,
      "dlife": 2654,
      "fil": 2655,
      "ipped": 2656,
      "kon": 2657,
      "mware": 2658,
      "na": 2659,
      "opping": 2660,
      "ral": 2661,
      "sat": 2662,
      "set": 2663,
      "Ġtem": 2664,
      "Ġtrial": 2665,
      "atively": 2666,
      "Ġaf": 2667,
      "ĠAc": 2668,
      "orpor": 2669,
      "hether": 2670,
      "eness": 2671,
      "ĠUpd": 2672,
      "ĠUSB": 2673,
      "Ġcr": 2674,
      "Ġcas": 2675,
      "Ġcount": 2676,
      "Ġcross": 2677,
      "Ġsn": 2678,
      "Ġsend": 2679,
      "Ġself": 2680,
      "ret": 2681,
      "Ġpol": 2682,
      "Ġded": 2683,
      "eds": 2684,
      "icated": 2685,
      "Ġfly": 2686,
      "Ġflex": 2687,
      "Ġmech": 2688,
      "itch": 2689,
      "alth": 2690,
      "alies": 2691,
      "Ġanom": 2692,
      "Ġanten": 2693,
      "Ġwil": 2694,
      "Ġwiring": 2695,
      "Ġopt": 2696,
      "Ġleg": 2697,
      "Ġlife": 2698,
      "Ġlocks": 2699,
      "Ġhist": 2700,
      "ĠBest": 2701,
      "Ġreception": 2702,
      "Ġcongest": 2703,
      "Ġvo": 2704,
      "ĠCir": 2705,
      "Ġraw": 2706,
      "forced": 2707,
      "Ġef": 2708,
      "Ġeight": 2709,
      "ĠLinu": 2710,
      "ĠLTS": 2711,
      "ĠDSh": 2712,
      "oted": 2713,
      "oting": 2714,
      "ensor": 2715,
      "Ġstopping": 2716,
      "ĠSAW": 2717,
      "Ġenforced": 2718,
      "pts": 2719,
      "Ġcompos": 2720,
      "Ġcontinu": 2721,
      "Ġdead": 2722,
      "Ġdeep": 2723,
      "Ġorig": 2724,
      "Ġbeen": 2725,
      "Ġbeing": 2726,
      "Ġexcess": 2727,
      "ically": 2728,
      "Ġmodified": 2729,
      "Ġaccording": 2730,
      "Ġhealth": 2731,
      "ellation": 2732,
      "Ġkg": 2733,
      "Ġschem": 2734,
      "Ġquant": 2735,
      "Ġquoted": 2736,
      "Ġintegrating": 2737,
      "Ġsynchronised": 2738,
      "Ġ22": 2739,
      "afe": 2740,
      "Ġ60": 2741,
      "ĠAll": 2742,
      "Ġreckon": 2743,
      "Ġincorpor": 2744,
      "Ġ15": 2745,
      "Ġupdate": 2746,
      "Ġtimers": 2747,
      "Ġmaintain": 2748,
      "Ġtransl": 2749,
      "Ġformul": 2750,
      "ĠESC": 2751,
      "Ġshi": 2752,
      "Ġprotection": 2753,
      "Ġpowered": 2754,
      "Ġfeeds": 2755,
      "Ġreducing": 2756,
      "Ġbatteries": 2757,
      "Ġoffline": 2758,
      "Ġoffsh": 2759,
      "Ġoffset": 2760,
      "Ġadded": 2761,
      "Ġadvanced": 2762,
      "Ġconstant": 2763,
      "600": 2764,
      "Ġelect": 2765,
      "Ġelectrical": 2766,
      "Ġfilters": 2767,
      "Ġcalm": 2768,
      "ĠApproach": 2769,
      "Ġcompressed": 2770,
      "ĠThis": 2771,
      "dictive": 2772,
      "Ġrecords": 2773,
      "Ġcloud": 2774,
      "Ġoptimize": 2775,
      "Ġfields": 2776,
      "Ġmatched": 2777,
      "Ġminutes": 2778,
      "Ġextensive": 2779,
      "ipment": 2780,
      "Ġports": 2781,
      "Ġenhanced": 2782,
      "Ġsmaller": 2783,
      "Ġdocuments": 2784,
      "Ġequipped": 2785,
      "Ġequipment": 2786,
      "ĠState": 2787,
      "Ġroutes": 2788,
      "Ġlisted": 2789,
      "Ġbuilt": 2790,
      "Ġrestric": 2791,
      "Ġstrateg": 2792,
      "Ġcentral": 2793,
      "Ġlocally": 2794,
      "Ġexperiments": 2795,
      "Ġthank": 2796,
      "ĠDescribe": 2797,
      "ifying": 2798,
      "ĠPrec": 2799,
      "ĠPredictive": 2800,
      "Ġrobots": 2801,
      "Ġsampling": 2802,
      "Ġswitch": 2803,
      "ĠUSVs": 2804,
      "Ġdurability": 2805,
      "Ġpreserv": 2806,
      "Ġcruise": 2807,
      "Ġdraw": 2808,
      "Ġfailsafe": 2809,
      "Ġthreads": 2810,
      "Ġrenders": 2811,
      "Ġaddresses": 2812,
      "Ġexperimental": 2813,
      "Ġdirect": 2814,
      "Ġnecessary": 2815,
      "Ġwatchdog": 2816,
      "Ġfirmware": 2817,
      "Ġexpandable": 2818,
      "Ġcollaboration": 2819,
      "Ġrecommended": 2820,
      "Ġproblems": 2821,
      "Ġstatus": 2822,
      "Ġestimate": 2823,
      "constellation": 2824,
      "disciplin": 2825,
      "filtered": 2826,
      "Ġtrials": 2827,
      "ĠUpdates": 2828,
      "Ġcases": 2829,
      "Ġsending": 2830,
      "Ġdedicated": 2831,
      "Ġflexible": 2832,
      "Ġmechan": 2833,
      "Ġanomalies": 2834,
      "Ġantenna": 2835,
      "Ġwildlife": 2836,
      "Ġlegal": 2837,
      "Ġhistor": 2838,
      "Ġcongested": 2839,
      "ĠCircular": 2840,
      "ĠLinux": 2841,
      "ĠDShot": 2842,
      "Ġexcessive": 2843,
      "Ġreckoning": 2844,
      "Ġoffshore": 2845,
      "'d": 2846,
      "'l": 2847,
      "Based": 2848,
      "Data": 2849,
      "Model": 2850,
      "Non": 2851,
      "With": 2852,
      "cial": 2853,
      "camera": 2854,
      "cope": 2855,
      "eo": 2856,
      "eoper": 2857,
      "micro": 2858,
      "opt": 2859,
      "pact": 2860,
      "sensor": 2861,
      "ving": 2862,
      "width": 2863,
      "ych": 2864,
      "yros": 2865,
      "Ġ'": 2866,
      "Ġtermin": 2867,
      "onlinear": 2868,
      "ined": 2869,
      "Ġaverage": 2870,
      "ĠAt": 2871,
      "Ġsat": 2872,
      "Ġpeo": 2873,
      "Ġdim": 2874,
      "Ġdust": 2875,
      "Ġdiffer": 2876,
      "ices": 2877,
      "Ġfuture": 2878,
      "Ġmust": 2879,
      "alu": 2880,
      "alData": 2881,
      "ares": 2882,
      "Ġanother": 2883,
      "Ġbig": 2884,
      "Ġband": 2885,
      "Ġweights": 2886,
      "Ġlet": 2887,
      "Ġlaun": 2888,
      "ete": 2889,
      "etry": 2890,
      "utely": 2891,
      "Ġprofess": 2892,
      "Ġhis": 2893,
      "Ġhome": 2894,
      "Ġhope": 2895,
      "acc": 2896,
      "Ġrepl": 2897,
      "Ġreact": 2898,
      "igure": 2899,
      "Ġthough": 2900,
      "Ġvs": 2901,
      "Ġvide": 2902,
      "oding": 2903,
      "Ġnonlinear": 2904,
      "Ġrange": 2905,
      "agr": 2906,
      "ĠHe": 2907,
      "ĠHi": 2908,
      "ĠHello": 2909,
      "ilos": 2910,
      "ĠPar": 2911,
      "Ġdoing": 2912,
      "Ġcomparis": 2913,
      "riate": 2914,
      "Ġgiv": 2915,
      "Ġglare": 2916,
      "Ġgyros": 2917,
      "Ġexist": 2918,
      "Ġexternal": 2919,
      "ronic": 2920,
      "Ġaltern": 2921,
      "Ġresistance": 2922,
      "Ġask": 2923,
      "Ġasking": 2924,
      "Ġperip": 2925,
      "Ġadopt": 2926,
      "Ġinterest": 2927,
      "Ġinterference": 2928,
      "ellig": 2929,
      "Ġuniversity": 2930,
      "Ġuniform": 2931,
      "Ġunaut": 2932,
      "Ġimpact": 2933,
      "order": 2934,
      "Ġupgrade": 2935,
      "Ġsimple": 2936,
      "Ġmanual": 2937,
      "vie": 2938,
      "view": 2939,
      "Ġplace": 2940,
      "Ġqueries": 2941,
      "Ġdetails": 2942,
      "Ġchapter": 2943,
      "ĠFeel": 2944,
      "Ġapprop": 2945,
      "Ġmaster": 2946,
      "Ġconfigured": 2947,
      "Ġphilos": 2948,
      "Ġpackage": 2949,
      "Ġlimits": 2950,
      "Ġensured": 2951,
      "Ġprotected": 2952,
      "Ġdecoding": 2953,
      "Ġintellig": 2954,
      "ĠSentiSystem": 2955,
      "Ġassistant": 2956,
      "Ġhighly": 2957,
      "heral": 2958,
      "Ġnetworks": 2959,
      "Ġcoordinated": 2960,
      "Ġcoordinating": 2961,
      "Ġknown": 2962,
      "Ġstudy": 2963,
      "Ġcapable": 2964,
      "Ġserves": 2965,
      "Ġfree": 2966,
      "ĠThan": 2967,
      "Ġemail": 2968,
      "Ġemploy": 2969,
      "Ġsignific": 2970,
      "Ġinternal": 2971,
      "Ġbuses": 2972,
      "Ġvery": 2973,
      "Ġvariables": 2974,
      "ishes": 2975,
      "Ġoptimization": 2976,
      "RealData": 2977,
      "Ġcreates": 2978,
      "Ġevent": 2979,
      "Ġevalu": 2980,
      "Ġflower": 2981,
      "Ġimproves": 2982,
      "Ġimproving": 2983,
      "Ġquestion": 2984,
      "Ġhouse": 2985,
      "Ġpredicted": 2986,
      "Ġcommands": 2987,
      "ĠSystemIdWith": 2988,
      "Ġdocumented": 2989,
      "Ġdocumentation": 2990,
      "Ġhuman": 2991,
      "Ġhumans": 2992,
      "Ġneural": 2993,
      "horized": 2994,
      "Ġcaptures": 2995,
      "Ġreliable": 2996,
      "Ġcluster": 2997,
      "resent": 2998,
      "Ġcolor": 2999,
      "Ġfollowing": 3000,
      "ĠPointCloud": 3001,
      "sync": 3002,
      "Ġtuned": 3003,
      "Ġtuning": 3004,
      "Ġmetric": 3005,
      "Ġprotects": 3006,
      "Ġmaneuvering": 3007,
      "Ġmeasurement": 3008,
      "frame": 3009,
      "Ġteleoper": 3010,
      "Ġhosts": 3011,
      "Ġlogged": 3012,
      "Ġwrapped": 3013,
      "Ġpair": 3014,
      "Ġpsych": 3015,
      "Ġmovie": 3016,
      "elerometer": 3017,
      "Ġrepresent": 3018,
      "Ġcontext": 3019,
      "Ġbranches": 3020,
      "Ġenhancement": 3021,
      "Ġdream": 3022,
      "Ġbook": 3023,
      "Ġcalcul": 3024,
      "Ġchecks": 3025,
      "Ġvoice": 3026,
      "Ġtranslate": 3027,
      "Ġelectronic": 3028,
      "'ll": 3029,
      "Ġterminal": 3030,
      "Ġpeople": 3031,
      "Ġdimens": 3032,
      "Ġdifferent": 3033,
      "Ġbandwidth": 3034,
      "Ġlaunched": 3035,
      "Ġprofessional": 3036,
      "Ġreplaced": 3037,
      "Ġvideo": 3038,
      "Ġcomparison": 3039,
      "Ġgives": 3040,
      "Ġgyroscope": 3041,
      "Ġalternative": 3042,
      "Ġperipheral": 3043,
      "Ġunauthorized": 3044,
      "Ġappropriate": 3045,
      "Ġphilosop": 3046,
      "ĠSentiSystems": 3047,
      "ĠSystemIdWithRealData": 3048,
      "Ġteleoperation": 3049,
      "\".": 3050,
      "05": 3051,
      "13": 3052,
      "220": 3053,
      "45": 3054,
      "750": 3055,
      "AM": 3056,
      "Act": 3057,
      "Box": 3058,
      "Cad": 3059,
      "CPA": 3060,
      "Cha": 3061,
      "DC": 3062,
      "Distance": 3063,
      "ELU": 3064,
      "Fix": 3065,
      "Future": 3066,
      "Flow": 3067,
      "High": 3068,
      "Kut": 3069,
      "LI": 3070,
      "Level": 3071,
      "Nav": 3072,
      "PT": 3073,
      "Pl": 3074,
      "Per": 3075,
      "Pol": 3076,
      "Pros": 3077,
      "PTP": 3078,
      "RK": 3079,
      "RTC": 3080,
      "ST": 3081,
      "Sat": 3082,
      "Train": 3083,
      "Viz": 3084,
      "aster": 3085,
      "bre": 3086,
      "bust": 3087,
      "cent": 3088,
      "cus": 3089,
      "cap": 3090,
      "callback": 3091,
      "corre": 3092,
      "di": 3093,
      "dk": 3094,
      "ded": 3095,
      "diagnost": 3096,
      "eff": 3097,
      "eval": 3098,
      "flu": 3099,
      "fib": 3100,
      "full": 3101,
      "follow": 3102,
      "ged": 3103,
      "gers": 3104,
      "glo": 3105,
      "hysical": 3106,
      "hold": 3107,
      "hless": 3108,
      "hapter": 3109,
      "io": 3110,
      "iet": 3111,
      "ipt": 3112,
      "iCad": 3113,
      "kill": 3114,
      "kness": 3115,
      "lat": 3116,
      "lated": 3117,
      "local": 3118,
      "mount": 3119,
      "net": 3120,
      "nav": 3121,
      "nov": 3122,
      "ove": 3123,
      "publ": 3124,
      "pir": 3125,
      "point": 3126,
      "rent": 3127,
      "right": 3128,
      "rack": 3129,
      "su": 3130,
      "sub": 3131,
      "size": 3132,
      "scale": 3133,
      "scribe": 3134,
      "sdk": 3135,
      "ta": 3136,
      "tri": 3137,
      "tication": 3138,
      "tocol": 3139,
      "track": 3140,
      "uator": 3141,
      "vessel": 3142,
      "zed": 3143,
      "ÃĹ": 3144,
      "âī": 3145,
      "Ġ&": 3146,
      "Ġ~": 3147,
      "Ġir": 3148,
      "Ġ71": 3149,
      "ĠâĢĵ": 3150,
      "Ġ45": 3151,
      "Ġ750": 3152,
      "Ġipt": 3153,
      "Ġâī": 3154,
      "Ġtit": 3155,
      "Ġtam": 3156,
      "Ġtur": 3157,
      "ath": 3158,
      "onar": 3159,
      "inity": 3160,
      "incipal": 3161,
      "Ġaft": 3162,
      "ert": 3163,
      "eshold": 3164,
      "ĠArchitecture": 3165,
      "ory": 3166,
      "Ġcable": 3167,
      "Ġcarb": 3168,
      "Ġcalled": 3169,
      "Ġsent": 3170,
      "Ġseg": 3171,
      "Ġstern": 3172,
      "Ġserial": 3173,
      "Ġsepar": 3174,
      "Ġskill": 3175,
      "Ġsonar": 3176,
      "Ġtheft": 3177,
      "red": 3178,
      "related": 3179,
      "Ġpil": 3180,
      "Ġpip": 3181,
      "Ġpoints": 3182,
      "Ġpath": 3183,
      "isher": 3184,
      "istered": 3185,
      "iscus": 3186,
      "Ġdro": 3187,
      "Ġdar": 3188,
      "Ġdue": 3189,
      "eding": 3190,
      "edge": 3191,
      "icial": 3192,
      "Ġfind": 3193,
      "Ġfour": 3194,
      "Ġfallback": 3195,
      "Ġfog": 3196,
      "aning": 3197,
      "Ġmast": 3198,
      "Ġmix": 3199,
      "itable": 3200,
      "itFlow": 3201,
      "ĠWE": 3202,
      "ĠWeb": 3203,
      "ĠWhite": 3204,
      "arac": 3205,
      "Ġanti": 3206,
      "Ġinline": 3207,
      "Ġindi": 3208,
      "Ġinflu": 3209,
      "Ġinert": 3210,
      "Ġbow": 3211,
      "Ġble": 3212,
      "Ġback": 3213,
      "ouster": 3214,
      "Ġweb": 3215,
      "Ġwhether": 3216,
      "state": 3217,
      "eled": 3218,
      "Ġomitted": 3219,
      "ima": 3220,
      "immers": 3221,
      "ĠIf": 3222,
      "ently": 3223,
      "Ġlect": 3224,
      "Ġlens": 3225,
      "Ġlast": 3226,
      "Ġlef": 3227,
      "Ġtoler": 3228,
      "Ġtogether": 3229,
      "omatic": 3230,
      "utOS": 3231,
      "Ġprodu": 3232,
      "Ġhour": 3233,
      "acon": 3234,
      "ĠRK": 3235,
      "ĠRun": 3236,
      "ĠRandom": 3237,
      "ĠRough": 3238,
      "ĠRViz": 3239,
      "ĠRutOS": 3240,
      "ĠBas": 3241,
      "ĠBind": 3242,
      "Ġrely": 3243,
      "Ġretri": 3244,
      "lear": 3245,
      "Ġcone": 3246,
      "iggers": 3247,
      "essive": 3248,
      "Ġoften": 3249,
      "ective": 3250,
      "ithreaded": 3251,
      "ĠCont": 3252,
      "ĠCPA": 3253,
      "ĠCha": 3254,
      "ĠCLI": 3255,
      "ĠChapter": 3256,
      "Ġonline": 3257,
      "uling": 3258,
      "Ġnight": 3259,
      "Ġnative": 3260,
      "Ġrivers": 3261,
      "asses": 3262,
      "ĠTCPA": 3263,
      "pering": 3264,
      "ĠePros": 3265,
      "ĠLow": 3266,
      "ĠLong": 3267,
      "ĠLaunch": 3268,
      "ĠLocal": 3269,
      "ĠNon": 3270,
      "ĠNTP": 3271,
      "ĠDiscus": 3272,
      "terior": 3273,
      "formance": 3274,
      "ense": 3275,
      "ensate": 3276,
      "Ġstock": 3277,
      "Ġstru": 3278,
      "adata": 3279,
      "adigm": 3280,
      "arded": 3281,
      "ilities": 3282,
      "ĠPort": 3283,
      "ĠPubl": 3284,
      "ĠPhysical": 3285,
      "ĠMult": 3286,
      "ĠMPC": 3287,
      "ĠMethod": 3288,
      "abilities": 3289,
      "mentation": 3290,
      "ĠSoftware": 3291,
      "ĠSection": 3292,
      "ĠSepar": 3293,
      "ĠGELU": 3294,
      "ĠGPT": 3295,
      "ĠGitFlow": 3296,
      "usts": 3297,
      "ainers": 3298,
      "Ġenabled": 3299,
      "Ġcompare": 3300,
      "Ġcompasses": 3301,
      "Ġcompensate": 3302,
      "osest": 3303,
      "ossen": 3304,
      "gressive": 3305,
      "Ġdegrade": 3306,
      "Ġdeviation": 3307,
      "avy": 3308,
      "avros": 3309,
      "vidual": 3310,
      "Ġgusts": 3311,
      "Ġbeacon": 3312,
      "aya": 3313,
      "Ġexcell": 3314,
      "Ġabbre": 3315,
      "Ġabove": 3316,
      "use": 3317,
      "usage": 3318,
      "ushless": 3319,
      "Ġtriggers": 3320,
      "Ġmodes": 3321,
      "Ġboats": 3322,
      "Ġresets": 3323,
      "Ġmicrocontroller": 3324,
      "plied": 3325,
      "plified": 3326,
      "Ġpercent": 3327,
      "olling": 3328,
      "through": 3329,
      "Ġsuitable": 3330,
      "ĠIndust": 3331,
      "ĠInfr": 3332,
      "ĠIncre": 3333,
      "ĠInnov": 3334,
      "ĠInterior": 3335,
      "Ġcover": 3336,
      "Ġcovers": 3337,
      "Ġaccident": 3338,
      "Ġrobust": 3339,
      "Ġinterf": 3340,
      "Ġinterior": 3341,
      "Ġinteroper": 3342,
      "Ġintervent": 3343,
      "Ġinterdisciplin": 3344,
      "Ġauthen": 3345,
      "Ġautomatic": 3346,
      "Ġthreshold": 3347,
      "Ġheavy": 3348,
      "Ġparadigm": 3349,
      "Ġunless": 3350,
      "Ġtested": 3351,
      "Ġkaya": 3352,
      "Ġsched": 3353,
      "ĠIMUs": 3354,
      "ansient": 3355,
      "Ġsimulator": 3356,
      "ĠKiCad": 3357,
      "Ġplacement": 3358,
      "Ġplaced": 3359,
      "Ġplanning": 3360,
      "apsh": 3361,
      "ĠZST": 3362,
      "Ġquiet": 3363,
      "Ġpreconfig": 3364,
      "Ġnotice": 3365,
      "ĠProper": 3366,
      "ĠProtocol": 3367,
      "ĠProgressive": 3368,
      "Ġ200": 3369,
      "Ġ220": 3370,
      "Ġcharac": 3371,
      "ĠFour": 3372,
      "ĠFox": 3373,
      "ĠFigure": 3374,
      "ĠFaster": 3375,
      "ĠFossen": 3376,
      "ĠYAM": 3377,
      "Ġovercorre": 3378,
      "Ġprincipal": 3379,
      "Ġitself": 3380,
      "Ġwaterways": 3381,
      "Ġresearchers": 3382,
      "astructure": 3383,
      "Ġrelies": 3384,
      "Ġrelatively": 3385,
      "udio": 3386,
      "Ġamplified": 3387,
      "ĠAnti": 3388,
      "Ġtransmit": 3389,
      "Ġmultithreaded": 3390,
      "Ġcommon": 3391,
      "Ġ50": 3392,
      "Ġapply": 3393,
      "Ġmax": 3394,
      "Ġmapping": 3395,
      "Ġmapped": 3396,
      "ĠEx": 3397,
      "ĠEight": 3398,
      "ĠEther": 3399,
      "Ġshow": 3400,
      "Ġlatest": 3401,
      "Ġrespons": 3402,
      "Ġperforming": 3403,
      "Ġspace": 3404,
      "Ġmultiplied": 3405,
      "Ġhandling": 3406,
      "Ġdecide": 3407,
      "angle": 3408,
      "roundings": 3409,
      "Ġreduced": 3410,
      "Ġadds": 3411,
      "Ġplatforms": 3412,
      "Ġsurroundings": 3413,
      "Ġcoordinates": 3414,
      "Ġspeeds": 3415,
      "Ġsupported": 3416,
      "Ġsupporting": 3417,
      "Ġstudents": 3418,
      "Ġcapabilities": 3419,
      "Ġpublic": 3420,
      "elded": 3421,
      "Ġcompressing": 3422,
      "Ġemit": 3423,
      "Ġharbors": 3424,
      "Ġrecorded": 3425,
      "modate": 3426,
      "modeled": 3427,
      "Ġteam": 3428,
      "Ġclamping": 3429,
      "Ġdiscourage": 3430,
      "Ġdiscret": 3431,
      "Ġdiscarded": 3432,
      "Ġoptimal": 3433,
      "Ġvisibility": 3434,
      "Ġtransports": 3435,
      "Ġtransported": 3436,
      "Ġmaterial": 3437,
      "Ġevents": 3438,
      "Ġprotocols": 3439,
      "Ġbrushless": 3440,
      "Ġaction": 3441,
      "Ġactuator": 3442,
      "Ġpredictive": 3443,
      "Ġpredictable": 3444,
      "Ġdisturbance": 3445,
      "Ġstores": 3446,
      "Ġvisualis": 3447,
      "component": 3448,
      "Ġportable": 3449,
      "Ġgrounding": 3450,
      "Ġadaptations": 3451,
      "Ġpayloads": 3452,
      "current": 3453,
      "ggled": 3454,
      "ĠUniform": 3455,
      "ĠUnmodeled": 3456,
      "Ġequations": 3457,
      "Ġjust": 3458,
      "Ġlargest": 3459,
      "ĠStrong": 3460,
      "ĠStudio": 3461,
      "Ġrouting": 3462,
      "Ġencourage": 3463,
      "Ġedges": 3464,
      "Ġminimal": 3465,
      "Ġminimizing": 3466,
      "Ġminimises": 3467,
      "Ġaffinity": 3468,
      "Ġcarries": 3469,
      "ĠDCPA": 3470,
      "resolution": 3471,
      "Ġcolour": 3472,
      "axis": 3473,
      "tightness": 3474,
      "Ġ93": 3475,
      "Ġtakes": 3476,
      "Ġfactors": 3477,
      "Ġmagnetometer": 3478,
      "Ġthanks": 3479,
      "ĠMarine": 3480,
      "ĠSurge": 3481,
      "Ġrecover": 3482,
      "inalg": 3483,
      "Ġregulations": 3484,
      "Ġregistered": 3485,
      "Ġrobotic": 3486,
      "Ġdescribes": 3487,
      "Ġgrid": 3488,
      "Ġgraph": 3489,
      "Ġmetadata": 3490,
      "Ġvalid": 3491,
      "Ġvalues": 3492,
      "ĠTransient": 3493,
      "ĠIntegration": 3494,
      "Ġencrypted": 3495,
      "Ġaluminum": 3496,
      "poral": 3497,
      "Ġswimmers": 3498,
      "ĠClamping": 3499,
      "ĠClosest": 3500,
      "Ġoperators": 3501,
      "ounds": 3502,
      "arising": 3503,
      "Ġreaches": 3504,
      "Ġcontribution": 3505,
      "Ġlogic": 3506,
      "Ġpulses": 3507,
      "Ġpulse": 3508,
      "rotational": 3509,
      "Ġrandomly": 3510,
      "ĠTimeReference": 3511,
      "ĠHuman": 3512,
      "ĠHumble": 3513,
      "ĠOnce": 3514,
      "Ġembeds": 3515,
      "Ġembedded": 3516,
      "theft": 3517,
      "Ġcleaning": 3518,
      "Ġseconds": 3519,
      "Ġcompatible": 3520,
      "Ġabsolute": 3521,
      "Ġaccommodate": 3522,
      "synchronisation": 3523,
      "Ġfacilitated": 3524,
      "Ġheartbeats": 3525,
      "svd": 3526,
      "Ġtarget": 3527,
      "ĠResults": 3528,
      "Ġcombines": 3529,
      "Ġdevice": 3530,
      "Ġscales": 3531,
      "Ġconsiders": 3532,
      "Ġpenalty": 3533,
      "Ġtemporal": 3534,
      "Ġcrash": 3535,
      "Ġcounters": 3536,
      "Ġsnapsh": 3537,
      "Ġpolarising": 3538,
      "Ġcompose": 3539,
      "Ġcontinuous": 3540,
      "Ġoriginal": 3541,
      "Ġshielded": 3542,
      "Ġelectrically": 3543,
      "Ġstrategies": 3544,
      "Ġcentralized": 3545,
      "ĠPrecision": 3546,
      "microsecond": 3547,
      "accelerometer": 3548,
      "agraph": 3549,
      "ĠParagraph": 3550,
      "Ġcalculated": 3551,
      "1305": 3552,
      "Kutta": 3553,
      "Levels": 3554,
      "NavSat": 3555,
      "Plan": 3556,
      "Performance": 3557,
      "Poly": 3558,
      "Training": 3559,
      "diagnostics": 3560,
      "effic": 3561,
      "fibre": 3562,
      "following": 3563,
      "glove": 3564,
      "navsat": 3565,
      "publisher": 3566,
      "righting": 3567,
      "super": 3568,
      "subscribe": 3569,
      "Ġirrotational": 3570,
      "Ġ7502": 3571,
      "Ġiptables": 3572,
      "Ġâī¥": 3573,
      "Ġtampering": 3574,
      "Ġturns": 3575,
      "Ġcarbon": 3576,
      "Ġsegmentation": 3577,
      "Ġserialization": 3578,
      "Ġseparate": 3579,
      "Ġpiloting": 3580,
      "Ġpipeline": 3581,
      "Ġdropping": 3582,
      "Ġdarkness": 3583,
      "Ġmixed": 3584,
      "ĠWebRTC": 3585,
      "Ġindividual": 3586,
      "Ġbleeding": 3587,
      "Ġlectures": 3588,
      "Ġlenses": 3589,
      "Ġleft": 3590,
      "Ġtolerates": 3591,
      "Ġhours": 3592,
      "ĠRunge": 3593,
      "ĠRandomised": 3594,
      "ĠRoughly": 3595,
      "ĠBasic": 3596,
      "ĠBinding": 3597,
      "Ġretrieval": 3598,
      "ĠContainers": 3599,
      "ĠChaCha": 3600,
      "ĠeProsima": 3601,
      "ĠLaunches": 3602,
      "ĠDiscussion": 3603,
      "Ġstruggled": 3604,
      "ĠPublishes": 3605,
      "ĠMulti": 3606,
      "ĠSeparating": 3607,
      "Ġexcellent": 3608,
      "Ġabbreviation": 3609,
      "Ġpercentage": 3610,
      "throughs": 3611,
      "ĠIndustry": 3612,
      "ĠInfrastructure": 3613,
      "ĠIncreased": 3614,
      "ĠInnovation": 3615,
      "Ġaccidental": 3616,
      "Ġrobustness": 3617,
      "Ġinteroperate": 3618,
      "Ġintervention": 3619,
      "Ġinterdisciplinary": 3620,
      "Ġauthentication": 3621,
      "Ġscheduling": 3622,
      "ĠZSTD": 3623,
      "Ġpreconfigured": 3624,
      "Ġnoticeable": 3625,
      "Ġcharacter": 3626,
      "ĠFourth": 3627,
      "ĠFoxglove": 3628,
      "ĠYAML": 3629,
      "Ġovercorrection": 3630,
      "ĠEthernet": 3631,
      "Ġdiscretised": 3632,
      "Ġsnapshot": 3633,
      "NavSatFix": 3634,
      "++": 3635,
      "12": 3636,
      "AT": 3637,
      "ASV": 3638,
      "BNon": 3639,
      "CP": 3640,
      "Const": 3641,
      "DF": 3642,
      "EG": 3643,
      "HCP": 3644,
      "Im": 3645,
      "LP": 3646,
      "QoS": 3647,
      "RDF": 3648,
      "REG": 3649,
      "SE": 3650,
      "Some": 3651,
      "WSome": 3652,
      "bu": 3653,
      "bers": 3654,
      "cer": 3655,
      "cast": 3656,
      "fun": 3657,
      "flow": 3658,
      "hull": 3659,
      "iance": 3660,
      "ients": 3661,
      "iors": 3662,
      "iries": 3663,
      "iological": 3664,
      "lies": 3665,
      "limin": 3666,
      "mist": 3667,
      "nel": 3668,
      "node": 3669,
      "oon": 3670,
      "oog": 3671,
      "pin": 3672,
      "puter": 3673,
      "self": 3674,
      "ulum": 3675,
      "xis": 3676,
      "¼s": 3677,
      "Ġing": 3678,
      "Ġzed": 3679,
      "Ġouster": 3680,
      "iness": 3681,
      "inions": 3682,
      "Ġaxis": 3683,
      "ered": 3684,
      "erful": 3685,
      "ercial": 3686,
      "esides": 3687,
      "ored": 3688,
      "enres": 3689,
      "ĠUTC": 3690,
      "ĠURDF": 3691,
      "Ġcour": 3692,
      "Ġcables": 3693,
      "Ġcores": 3694,
      "Ġsom": 3695,
      "Ġspe": 3696,
      "Ġthey": 3697,
      "recording": 3698,
      "Ġple": 3699,
      "Ġpot": 3700,
      "isions": 3701,
      "ioned": 3702,
      "Ġdig": 3703,
      "Ġdance": 3704,
      "Ġdocker": 3705,
      "road": 3706,
      "rodu": 3707,
      "icate": 3708,
      "iculum": 3709,
      "Ġfam": 3710,
      "anion": 3711,
      "anations": 3712,
      "Ġment": 3713,
      "Ġmem": 3714,
      "Ġmight": 3715,
      "Ġmcap": 3716,
      "Ġmavros": 3717,
      "itate": 3718,
      "itution": 3719,
      "aries": 3720,
      "areness": 3721,
      "Ġinv": 3722,
      "Ġinform": 3723,
      "Ġinqu": 3724,
      "Ġinvers": 3725,
      "Ġbrain": 3726,
      "Ġbiological": 3727,
      "Ġbroad": 3728,
      "Ġwel": 3729,
      "Ġwond": 3730,
      "Ġoce": 3731,
      "Ġovers": 3732,
      "imod": 3733,
      "Ġlas": 3734,
      "Ġlear": 3735,
      "Ġlinalg": 3736,
      "ominal": 3737,
      "Ġproper": 3738,
      "Ġhav": 3739,
      "Ġhob": 3740,
      "aces": 3741,
      "ĠRolling": 3742,
      "ĠBBNon": 3743,
      "Ġcondu": 3744,
      "Ġconcer": 3745,
      "uration": 3746,
      "Ġthrot": 3747,
      "Ġvast": 3748,
      "Ġveloc": 3749,
      "Ġnominal": 3750,
      "asure": 3751,
      "ĠTell": 3752,
      "forts": 3753,
      "ĠLevel": 3754,
      "ĠNever": 3755,
      "ĠNAT": 3756,
      "ĠDef": 3757,
      "ĠDHCP": 3758,
      "Ġcomes": 3759,
      "Ġcomed": 3760,
      "Ġstre": 3761,
      "Ġstable": 3762,
      "Ġstrong": 3763,
      "ade": 3764,
      "arding": 3765,
      "ĠMLP": 3766,
      "ĠService": 3767,
      "ĠSee": 3768,
      "ĠGoog": 3769,
      "emetry": 3770,
      "atever": 3771,
      "Ġcompanion": 3772,
      "Ġcontin": 3773,
      "Ġdebu": 3774,
      "ĠVO": 3775,
      "ppers": 3776,
      "avel": 3777,
      "Ġgive": 3778,
      "Ġgame": 3779,
      "Ġgood": 3780,
      "Ġgames": 3781,
      "Ġgenres": 3782,
      "Ġpreview": 3783,
      "Ġprelimin": 3784,
      "Ġexpos": 3785,
      "quares": 3786,
      "Ġtravel": 3787,
      "Ġresour": 3788,
      "Ġresults": 3789,
      "plete": 3790,
      "Ġwhite": 3791,
      "Ġwhatever": 3792,
      "Ġsubst": 3793,
      "enced": 3794,
      "Ġcoeffic": 3795,
      "Ġinterru": 3796,
      "Ġpars": 3797,
      "ellite": 3798,
      "Ġupon": 3799,
      "Ġscent": 3800,
      "Ġscanning": 3801,
      "ission": 3802,
      "ansion": 3803,
      "ivation": 3804,
      "uality": 3805,
      "ually": 3806,
      "Ġ212": 3807,
      "ĠYou": 3808,
      "clock": 3809,
      "Ġoverall": 3810,
      "Ġyourself": 3811,
      "ators": 3812,
      "Ġfocused": 3813,
      "ĠReLU": 3814,
      "ĠJust": 3815,
      "Ġhelping": 3816,
      "Ġample": 3817,
      "Ġmultimod": 3818,
      "Ġcommercial": 3819,
      "motor": 3820,
      "Ġrunning": 3821,
      "antly": 3822,
      "cious": 3823,
      "program": 3824,
      "Ġrespond": 3825,
      "Ġspir": 3826,
      "ething": 3827,
      "Ġintrodu": 3828,
      "Ġtechnolog": 3829,
      "Ġreduce": 3830,
      "Ġpreferred": 3831,
      "Ġunderlies": 3832,
      "Ġunderpin": 3833,
      "Ġcurriculum": 3834,
      "Ġsolution": 3835,
      "Ġsolved": 3836,
      "Ġgeneration": 3837,
      "ĠQuality": 3838,
      "Ġsupports": 3839,
      "Ġpriorit": 3840,
      "Ġseason": 3841,
      "Ġdrive": 3842,
      "ificial": 3843,
      "Ġapplies": 3844,
      "Ġwhenever": 3845,
      "Ġconscious": 3846,
      "Ġexplore": 3847,
      "Ġexplored": 3848,
      "Ġexplanations": 3849,
      "Ġcommunicate": 3850,
      "Ġoptimized": 3851,
      "Ġmeasures": 3852,
      "ĠCOLREG": 3853,
      "Ġflight": 3854,
      "Ġfunctionality": 3855,
      "Ġhousings": 3856,
      "ternoon": 3857,
      "Ġstored": 3858,
      "Ġvisualized": 3859,
      "LinModel": 3860,
      "come": 3861,
      "computer": 3862,
      "Ġceleb": 3863,
      "Ġinstitution": 3864,
      "Ġconverts": 3865,
      "Ġenhances": 3866,
      "Ġadvantages": 3867,
      "gging": 3868,
      "Ġmedical": 3869,
      "Ġhumor": 3870,
      "Ġhappy": 3871,
      "ĠGoodby": 3872,
      "Ġlistener": 3873,
      "Ġbehaviors": 3874,
      "Ġmonitored": 3875,
      "Ġnumber": 3876,
      "Ġnumbers": 3877,
      "Ġexpansion": 3878,
      "Ġchef": 3879,
      "Ġchemist": 3880,
      "ologist": 3881,
      "Ġcollection": 3882,
      "ĠBye": 3883,
      "Ġconversation": 3884,
      "ĠÎ¼s": 3885,
      "Ġinspir": 3886,
      "Ġbalances": 3887,
      "Ġregarding": 3888,
      "ineered": 3889,
      "Ġadjusted": 3890,
      "Ġfeelings": 3891,
      "Ġinitiated": 3892,
      "Ġinitiates": 3893,
      "Ġcorrect": 3894,
      "Ġfaculty": 3895,
      "Ġmachine": 3896,
      "Ġopinions": 3897,
      "Ġoffering": 3898,
      "Ġdetective": 3899,
      "Ġartificial": 3900,
      "Ġgrey": 3901,
      "Ġinteractions": 3902,
      "Ġloops": 3903,
      "Ġdisplays": 3904,
      "Ġmeasurements": 3905,
      "Ġpoem": 3906,
      "Ġduration": 3907,
      "Ġtelemetry": 3908,
      "Ġhosted": 3909,
      "Ġengineered": 3910,
      "Ġlogging": 3911,
      "Ġchallenges": 3912,
      "Ġwrappers": 3913,
      "theless": 3914,
      "Ġclear": 3915,
      "igma": 3916,
      "Ġcompatibility": 3917,
      "Ġabsolutely": 3918,
      "Ġevening": 3919,
      "synchronized": 3920,
      "Ġfacilitate": 3921,
      "eeing": 3922,
      "Ġidentification": 3923,
      "Ġpaint": 3924,
      "Ġanalyze": 3925,
      "Ġanalyzes": 3926,
      "Ġindicates": 3927,
      "Ġwords": 3928,
      "Ġoccurs": 3929,
      "Ġconcepts": 3930,
      "Ġcompliance": 3931,
      "Ġgoing": 3932,
      "Ġscientist": 3933,
      "Ġscientific": 3934,
      "Ġsports": 3935,
      "Ġexplained": 3936,
      "Ġutilizing": 3937,
      "Ġmitigate": 3938,
      "Ġholiday": 3939,
      "Ġholidays": 3940,
      "Ġafternoon": 3941,
      "ĠAccess": 3942,
      "Ġoptions": 3943,
      "Ġefforts": 3944,
      "Ġscheme": 3945,
      "Ġquantified": 3946,
      "Ġincorporates": 3947,
      "Ġformula": 3948,
      "Ġrestricted": 3949,
      "Ġdirectly": 3950,
      "Ġmechanis": 3951,
      "Ġhistorian": 3952,
      "Ġsatellite": 3953,
      "Ġhomework": 3954,
      "Ġintelligence": 3955,
      "ĠThanks": 3956,
      "Ġsignificantly": 3957,
      "Ġevaluated": 3958,
      "Ġpsychologist": 3959,
      "Ġphilosopher": 3960,
      "latency": 3961,
      "ĠWhiteBox": 3962,
      "Ġinfluenced": 3963,
      "Ġinertial": 3964,
      "Ġinterfaces": 3965,
      "Ġgraphs": 3966,
      "Ġvalidation": 3967,
      "supervisor": 3968,
      "++.": 3969,
      "Constants": 3970,
      "Imu": 3971,
      "WSomeConstants": 3972,
      "Ġingress": 3973,
      "Ġcourse": 3974,
      "Ġsomething": 3975,
      "Ġpleasure": 3976,
      "Ġpotential": 3977,
      "Ġdigit": 3978,
      "Ġfamily": 3979,
      "Ġmentioned": 3980,
      "Ġmemory": 3981,
      "Ġinformative": 3982,
      "Ġinquiries": 3983,
      "Ġinversion": 3984,
      "Ġbroadcast": 3985,
      "Ġwelcome": 3986,
      "Ġwonderful": 3987,
      "Ġocean": 3988,
      "Ġoverseeing": 3989,
      "Ġlaser": 3990,
      "Ġlearn": 3991,
      "Ġhaving": 3992,
      "ĠBBNonLinModel": 3993,
      "Ġconduct": 3994,
      "Ġconcerning": 3995,
      "Ġthrott": 3996,
      "Ġvelocities": 3997,
      "ĠNevertheless": 3998,
      "ĠDefine": 3999,
      "ĠGoogle": 4000,
      "Ġdebugging": 4001,
      "Ġexposed": 4002,
      "Ġresources": 4003,
      "Ġcoefficients": 4004,
      "Ġinterrupts": 4005,
      "Ġ2128": 4006,
      "Ġmultimodal": 4007,
      "programmed": 4008,
      "Ġspirit": 4009,
      "Ġintroduced": 4010,
      "Ġtechnologies": 4011,
      "Ġunderpins": 4012,
      "ĠCOLREGS": 4013,
      "Ġcelebrate": 4014,
      "ĠGoodbye": 4015,
      "Ġchemistry": 4016,
      "Ġinspiration": 4017,
      "ĠBBNonLinModelWSomeConstants": 4018,
      "10": 4019,
      "IP": 4020,
      "Point": 4021,
      "Sense": 4022,
      "aject": 4023,
      "best": 4024,
      "cenari": 4025,
      "csv": 4026,
      "clear": 4027,
      "dro": 4028,
      "dent": 4029,
      "ement": 4030,
      "fined": 4031,
      "gth": 4032,
      "gence": 4033,
      "gets": 4034,
      "goal": 4035,
      "hip": 4036,
      "iation": 4037,
      "iol": 4038,
      "ips": 4039,
      "know": 4040,
      "lers": 4041,
      "lared": 4042,
      "mand": 4043,
      "ogr": 4044,
      "oster": 4045,
      "oordin": 4046,
      "oother": 4047,
      "pil": 4048,
      "pace": 4049,
      "pective": 4050,
      "risk": 4051,
      "serv": 4052,
      "side": 4053,
      "sigma": 4054,
      "scenari": 4055,
      "space": 4056,
      "tun": 4057,
      "uel": 4058,
      "uation": 4059,
      "xts": 4060,
      "ym": 4061,
      "yond": 4062,
      "ĠX": 4063,
      "ature": 4064,
      "atical": 4065,
      "ining": 4066,
      "Ġaid": 4067,
      "eration": 4068,
      "erve": 4069,
      "erized": 4070,
      "ories": 4071,
      "oriol": 4072,
      "ength": 4073,
      "ĠUN": 4074,
      "Ġcrypt": 4075,
      "Ġseries": 4076,
      "Ġpage": 4077,
      "Ġpoll": 4078,
      "Ġdash": 4079,
      "ick": 4080,
      "Ġfit": 4081,
      "Ġfive": 4082,
      "Ġfund": 4083,
      "Ġfoster": 4084,
      "Ġfuel": 4085,
      "anular": 4086,
      "Ġmas": 4087,
      "Ġmap": 4088,
      "Ġmade": 4089,
      "iter": 4090,
      "ĠWeights": 4091,
      "aramet": 4092,
      "arts": 4093,
      "Ġinval": 4094,
      "Ġbl": 4095,
      "Ġbind": 4096,
      "Ġbud": 4097,
      "Ġbounds": 4098,
      "Ġbesides": 4099,
      "Ġwill": 4100,
      "static": 4101,
      "stamp": 4102,
      "ĠIdent": 4103,
      "Ġlate": 4104,
      "Ġlength": 4105,
      "ample": 4106,
      "amless": 4107,
      "ĠBound": 4108,
      "Ġreweight": 4109,
      "lege": 4110,
      "ither": 4111,
      "ership": 4112,
      "ĠCap": 4113,
      "ĠCoordin": 4114,
      "uler": 4115,
      "Ġrap": 4116,
      "asy": 4117,
      "agate": 4118,
      "vement": 4119,
      "Ġeither": 4120,
      "Ġeasy": 4121,
      "ĠList": 4122,
      "ĠNone": 4123,
      "ĠData": 4124,
      "ĠDynam": 4125,
      "ĠDevel": 4126,
      "forms": 4127,
      "Ġwithstand": 4128,
      "Ġstay": 4129,
      "Ġstated": 4130,
      "Ġstations": 4131,
      "Ġstart": 4132,
      "Ġstarts": 4133,
      "iliation": 4134,
      "ĠSust": 4135,
      "ĠSpec": 4136,
      "ĠGener": 4137,
      "verns": 4138,
      "ained": 4139,
      "ainable": 4140,
      "Ġenough": 4141,
      "grained": 4142,
      "Ġiteration": 4143,
      "Ġdegrad": 4144,
      "ript": 4145,
      "Ġacron": 4146,
      "Ġaccept": 4147,
      "Ġacknow": 4148,
      "istics": 4149,
      "avour": 4150,
      "Ġgit": 4151,
      "Ġgrou": 4152,
      "Ġgoal": 4153,
      "Ġbeyond": 4154,
      "Ġprep": 4155,
      "Ġprede": 4156,
      "Ġexample": 4157,
      "Ġalone": 4158,
      "ift": 4159,
      "ifies": 4160,
      "Ġtraject": 4161,
      "Ġmodification": 4162,
      "Ġreset": 4163,
      "Ġrespective": 4164,
      "Ġcontrollers": 4165,
      "plain": 4166,
      "Ġcoher": 4167,
      "Ġaccount": 4168,
      "Ġacceler": 4169,
      "Ġparam": 4170,
      "Ġparses": 4171,
      "Ġmodelled": 4172,
      "umed": 4173,
      "Ġdesired": 4174,
      "Ġunifying": 4175,
      "Ġunclear": 4176,
      "Ġimage": 4177,
      "Ġupgrad": 4178,
      "Ġkeep": 4179,
      "Ġsimulate": 4180,
      "iveness": 4181,
      "Ġdynamically": 4182,
      "Ġquick": 4183,
      "Ġnoted": 4184,
      "Ġchang": 4185,
      "Ġchanges": 4186,
      "Ġchange": 4187,
      "Ġ62": 4188,
      "ĠFine": 4189,
      "ĠAlso": 4190,
      "earchers": 4191,
      "Ġsynchronize": 4192,
      "Ġfocuses": 4193,
      "Ġincre": 4194,
      "Ġupdating": 4195,
      "ops": 4196,
      "opment": 4197,
      "vised": 4198,
      "Ġhelps": 4199,
      "Ġtransmitted": 4200,
      "Ġtransforms": 4201,
      "Ġassumed": 4202,
      "Ġatt": 4203,
      "Ġatten": 4204,
      "ffers": 4205,
      "Ġformulations": 4206,
      "dup": 4207,
      "ledges": 4208,
      "ĠEM": 4209,
      "ĠEuler": 4210,
      "Ġshown": 4211,
      "Ġship": 4212,
      "Ġshift": 4213,
      "anti": 4214,
      "boards": 4215,
      "Ġlimitation": 4216,
      "ploys": 4217,
      "Ġdeclared": 4218,
      "Ġpreferable": 4219,
      "Ġofficial": 4220,
      "ires": 4221,
      "pute": 4222,
      "Ġworksh": 4223,
      "Ġgenerator": 4224,
      "Ġcoordinator": 4225,
      "Ġeffect": 4226,
      "ĠQP": 4227,
      "Ġelement": 4228,
      "Ġsupportive": 4229,
      "Ġmotivation": 4230,
      "Ġsmoother": 4231,
      "Ġservices": 4232,
      "Ġseal": 4233,
      "Ġseamless": 4234,
      "ĠTogether": 4235,
      "Ġcompresses": 4236,
      "Ġfunctions": 4237,
      "Ġteams": 4238,
      "Ġverification": 4239,
      "Ġcondition": 4240,
      "Ġcommunications": 4241,
      "ivery": 4242,
      "Ġ`/": 4243,
      "Ġoptimisation": 4244,
      "Ġmatric": 4245,
      "Ġmathem": 4246,
      "Ġbenefits": 4247,
      "Ġflips": 4248,
      "Ġflavour": 4249,
      "Ġspecification": 4250,
      "Ġlighting": 4251,
      "Ġlaunches": 4252,
      "Ġpropagate": 4253,
      "command": 4254,
      "compute": 4255,
      "Ġinstance": 4256,
      "Ġbuffers": 4257,
      "Ġconverted": 4258,
      "Ġconvergence": 4259,
      "Ġdefines": 4260,
      "Ġdefined": 4261,
      "Ġadaptation": 4262,
      "Ġconstraint": 4263,
      "Ġrequire": 4264,
      "Ġrequires": 4265,
      "Ġsecures": 4266,
      "ĠStill": 4267,
      "Ġangv": 4268,
      "Ġlistens": 4269,
      "Ġfiltered": 4270,
      "Ġbuildup": 4271,
      "Ġaffiliation": 4272,
      "ĠASVs": 4273,
      "Ġobserv": 4274,
      "Ġprofessors": 4275,
      "Ġexpress": 4276,
      "Ġcollege": 4277,
      "Ġlayer": 4278,
      "Ġpenalizes": 4279,
      "Ġpenalises": 4280,
      "Ġdelay": 4281,
      "Ġdelivery": 4282,
      "Ġhydro": 4283,
      "Ġgranular": 4284,
      "Ġstacks": 4285,
      "aphic": 4286,
      "Ġ256": 4287,
      "Ġprotections": 4288,
      "Ġcontainerisation": 4289,
      "Ġsamples": 4290,
      "Ġsampled": 4291,
      "Ġlevels": 4292,
      "Ġrecompil": 4293,
      "Ġpoor": 4294,
      "Ġpurely": 4295,
      "Ġpreserve": 4296,
      "Ġavoided": 4297,
      "Ġrender": 4298,
      "Ġmanagement": 4299,
      "Ġchallenge": 4300,
      "Ġchallenged": 4301,
      "Ġaddressed": 4302,
      "Ġleadership": 4303,
      "Ġpsi": 4304,
      "Ġmovement": 4305,
      "Ġreparamet": 4306,
      "Ġcontexts": 4307,
      "Ġfixes": 4308,
      "processing": 4309,
      "Ġbranching": 4310,
      "Ġidentifies": 4311,
      "Ġtargets": 4312,
      "Ġpassed": 4313,
      "ĠResearchers": 4314,
      "Ġcombining": 4315,
      "Ġdevices": 4316,
      "Ġgoverns": 4317,
      "Ġscaling": 4318,
      "Ġconsidered": 4319,
      "Ġpenalties": 4320,
      "Ġavoiding": 4321,
      "Ġmitigated": 4322,
      "Ġafter": 4323,
      "ĠAccording": 4324,
      "Ġoption": 4325,
      "Ġeffort": 4326,
      "Ġschematics": 4327,
      "Ġformulation": 4328,
      "Ġclouds": 4329,
      "Ġrestrict": 4330,
      "Ġthanked": 4331,
      "Ġpreserved": 4332,
      "Ġmechanical": 4333,
      "Ġbiggest": 4334,
      "Ġreactions": 4335,
      "Ġadopted": 4336,
      "Ġrepresented": 4337,
      "Ġdimension": 4338,
      "Ġdimensions": 4339,
      "Ġtitle": 4340,
      "Ġbackend": 4341,
      "Ġproduces": 4342,
      "Ġkayaks": 4343,
      "ĠExplain": 4344,
      "Ġresponsiveness": 4345,
      "Ġvisualiser": 4346,
      "Ġrecovered": 4347,
      "Ġcharacteristics": 4348,
      "flowing": 4349,
      "Ġstreams": 4350,
      "Ġparsing": 4351,
      "Ġthrottling": 4352,
      "PointCloud": 4353,
      "ographic": 4354,
      "scenario": 4355,
      "tunnel": 4356,
      "oriolis": 4357,
      "Ġcryptographic": 4358,
      "Ġdashboards": 4359,
      "Ġfunding": 4360,
      "Ġfostered": 4361,
      "Ġmask": 4362,
      "Ġinvalid": 4363,
      "Ġbindings": 4364,
      "Ġbudget": 4365,
      "stamped": 4366,
      "ĠIdentify": 4367,
      "Ġreweighting": 4368,
      "ĠCapsize": 4369,
      "ĠCoordinate": 4370,
      "Ġrapid": 4371,
      "ĠDynamic": 4372,
      "ĠDevelopment": 4373,
      "ĠSustainable": 4374,
      "ĠSpecific": 4375,
      "ĠGenerally": 4376,
      "Ġdegradation": 4377,
      "Ġacronym": 4378,
      "Ġaccepting": 4379,
      "Ġacknowledges": 4380,
      "Ġgroup": 4381,
      "Ġpredefined": 4382,
      "Ġtrajectories": 4383,
      "Ġcoherent": 4384,
      "Ġaccelerates": 4385,
      "Ġchanged": 4386,
      "Ġattenuation": 4387,
      "Ġshipboard": 4388,
      "Ġworkshops": 4389,
      "Ġmatrices": 4390,
      "Ġmathematical": 4391,
      "Ġhydrostatic": 4392,
      "Ġgranularity": 4393,
      "Ġrecompiling": 4394,
      "Ġreparameterized": 4395,
      "'ve": 4396,
      ")?": 4397,
      ".\"": 4398,
      ".,": 4399,
      "LSE": 4400,
      "Risk": 4401,
      "`,": 4402,
      "`?": 4403,
      "ak": 4404,
      "au": 4405,
      "ave": 4406,
      "ape": 4407,
      "aking": 4408,
      "akes": 4409,
      "boat": 4410,
      "bow": 4411,
      "bles": 4412,
      "bies": 4413,
      "cator": 4414,
      "cript": 4415,
      "duration": 4416,
      "eing": 4417,
      "east": 4418,
      "fre": 4419,
      "fect": 4420,
      "fter": 4421,
      "fact": 4422,
      "feel": 4423,
      "go": 4424,
      "ger": 4425,
      "ho": 4426,
      "hical": 4427,
      "here": 4428,
      "home": 4429,
      "hob": 4430,
      "iec": 4431,
      "ipp": 4432,
      "ious": 4433,
      "job": 4434,
      "kers": 4435,
      "lad": 4436,
      "long": 4437,
      "lish": 4438,
      "ltered": 4439,
      "mission": 4440,
      "making": 4441,
      "oks": 4442,
      "oke": 4443,
      "oking": 4444,
      "pan": 4445,
      "part": 4446,
      "pret": 4447,
      "pically": 4448,
      "sur": 4449,
      "sive": 4450,
      "spe": 4451,
      "sizes": 4452,
      "tor": 4453,
      "ting": 4454,
      "test": 4455,
      "uable": 4456,
      "ugh": 4457,
      "ucator": 4458,
      "ven": 4459,
      "vents": 4460,
      "vant": 4461,
      "wareness": 4462,
      "where": 4463,
      "yer": 4464,
      "yes": 4465,
      "yaw": 4466,
      "ypically": 4467,
      "Ġec": 4468,
      "Ġess": 4469,
      "Ġour": 4470,
      "Ġton": 4471,
      "Ġtrou": 4472,
      "Ġtired": 4473,
      "atig": 4474,
      "ativity": 4475,
      "ongs": 4476,
      "ink": 4477,
      "inform": 4478,
      "integr": 4479,
      "inition": 4480,
      "incom": 4481,
      "Ġage": 4482,
      "Ġawareness": 4483,
      "ery": 4484,
      "erap": 4485,
      "erged": 4486,
      "erfect": 4487,
      "esitate": 4488,
      "ĠAfter": 4489,
      "heltered": 4490,
      "ĠAIs": 4491,
      "Ġcold": 4492,
      "Ġsay": 4493,
      "Ġsus": 4494,
      "Ġsour": 4495,
      "Ġseen": 4496,
      "Ġsizes": 4497,
      "Ġsound": 4498,
      "Ġsounds": 4499,
      "Ġsquares": 4500,
      "Ġsheltered": 4501,
      "Ġtheir": 4502,
      "reference": 4503,
      "rehen": 4504,
      "Ġpet": 4505,
      "Ġpap": 4506,
      "Ġpets": 4507,
      "Ġpiec": 4508,
      "isy": 4509,
      "ished": 4510,
      "isfact": 4511,
      "Ġdt": 4512,
      "Ġdif": 4513,
      "row": 4514,
      "iciency": 4515,
      "Ġfur": 4516,
      "Ġfri": 4517,
      "Ġfine": 4518,
      "Ġfound": 4519,
      "Ġfatig": 4520,
      "anar": 4521,
      "Ġmal": 4522,
      "Ġmist": 4523,
      "Ġmind": 4524,
      "Ġmov": 4525,
      "ites": 4526,
      "itical": 4527,
      "itivity": 4528,
      "itute": 4529,
      "ĠWhether": 4530,
      "ĠWhile": 4531,
      "align": 4532,
      "alian": 4533,
      "arizing": 4534,
      "arrow": 4535,
      "Ġinde": 4536,
      "Ġindex": 4537,
      "Ġbeli": 4538,
      "Ġwire": 4539,
      "Ġweight": 4540,
      "stim": 4541,
      "elp": 4542,
      "Ġoth": 4543,
      "Ġold": 4544,
      "entive": 4545,
      "Ġforms": 4546,
      "Ġled": 4547,
      "Ġless": 4548,
      "Ġliv": 4549,
      "eting": 4550,
      "omplete": 4551,
      "uting": 4552,
      "utter": 4553,
      "Ġprolong": 4554,
      "Ġhot": 4555,
      "Ġhesitate": 4556,
      "oatModel": 4557,
      "olves": 4558,
      "ĠBerthing": 4559,
      "ĠBeing": 4560,
      "ĠButter": 4561,
      "ĠBoatModel": 4562,
      "Ġrele": 4563,
      "Ġretain": 4564,
      "lease": 4565,
      "igated": 4566,
      "esses": 4567,
      "ceive": 4568,
      "Ġthus": 4569,
      "Ġtherap": 4570,
      "ersion": 4571,
      "Ġvaries": 4572,
      "Ġversion": 4573,
      "ĠCould": 4574,
      "ĠCSV": 4575,
      "ĠCoriolis": 4576,
      "Ġongo": 4577,
      "ulink": 4578,
      "Ġnow": 4579,
      "Ġnear": 4580,
      "Ġnerv": 4581,
      "Ġnice": 4582,
      "Ġnarrow": 4583,
      "Ġrain": 4584,
      "Ġyes": 4585,
      "asible": 4586,
      "ĠTypically": 4587,
      "aging": 4588,
      "agery": 4589,
      "perature": 4590,
      "ĠHave": 4591,
      "ĠHelp": 4592,
      "Ġeat": 4593,
      "Ġever": 4594,
      "Ġeyes": 4595,
      "ĠLSE": 4596,
      "ĠLeast": 4597,
      "ĠDOF": 4598,
      "Ġcome": 4599,
      "Ġstri": 4600,
      "Ġstates": 4601,
      "Ġstore": 4602,
      "Ġstruct": 4603,
      "aditional": 4604,
      "advisor": 4605,
      "ilot": 4606,
      "ĠPower": 4607,
      "ĠPerfect": 4608,
      "ĠPlease": 4609,
      "Ġusually": 4610,
      "ĠMission": 4611,
      "ĠSense": 4612,
      "ĠSquares": 4613,
      "estions": 4614,
      "estigated": 4615,
      "Ġcomply": 4616,
      "Ġcomprehen": 4617,
      "osystem": 4618,
      "Ġdepart": 4619,
      "ripts": 4620,
      "Ġacts": 4621,
      "izations": 4622,
      "Ġget": 4623,
      "Ġglad": 4624,
      "Ġprevents": 4625,
      "Ġsensitivity": 4626,
      "Ġalive": 4627,
      "Ġalongs": 4628,
      "ifically": 4629,
      "quent": 4630,
      "Ġtraditional": 4631,
      "Ġmode": 4632,
      "Ġmodality": 4633,
      "Ġresear": 4634,
      "place": 4635,
      "plish": 4636,
      "Ġpermitted": 4637,
      "Ġperceive": 4638,
      "throp": 4639,
      "Ġadher": 4640,
      "Ġadvised": 4641,
      "Ġsugg": 4642,
      "Ġrot": 4643,
      "Ġrough": 4644,
      "Ġinterpret": 4645,
      "Ġlooking": 4646,
      "Ġautonom": 4647,
      "Ġautop": 4648,
      "ĠItalian": 4649,
      "Ġdescript": 4650,
      "Ġtestbed": 4651,
      "ceptible": 4652,
      "Ġimport": 4653,
      "Ġimagery": 4654,
      "Ġupke": 4655,
      "Ġscripts": 4656,
      "Ġrealm": 4657,
      "Ġreality": 4658,
      "Ġsimulates": 4659,
      "Ġmeet": 4660,
      "Ġplans": 4661,
      "Ġplant": 4662,
      "Ġplants": 4663,
      "Ġplanar": 4664,
      "apes": 4665,
      "Ġsync": 4666,
      "Ġprecaut": 4667,
      "Ġsynchronisation": 4668,
      "Ġfavorites": 4669,
      "aft": 4670,
      "Ġconnections": 4671,
      "Ġoperated": 4672,
      "Ġoperates": 4673,
      "Ġoperating": 4674,
      "Ġfocusing": 4675,
      "Ġincomplete": 4676,
      "ends": 4677,
      "endations": 4678,
      "ialized": 4679,
      "Ġmainly": 4680,
      "ĠAnthrop": 4681,
      "ouraged": 4682,
      "Ġtransition": 4683,
      "Ġtransmission": 4684,
      "ruments": 4685,
      "Ġformal": 4686,
      "Ġsuperior": 4687,
      "Ġmakes": 4688,
      "Ġsafeg": 4689,
      "Ġguides": 4690,
      "ĠEvery": 4691,
      "ĠEstim": 4692,
      "Ġshould": 4693,
      "Ġshape": 4694,
      "Ġshapes": 4695,
      "antial": 4696,
      "Ġcurious": 4697,
      "efs": 4698,
      "Ġagile": 4699,
      "awareness": 4700,
      "Ġdecision": 4701,
      "Ġdecides": 4702,
      "Ġdecisions": 4703,
      "Ġfeasible": 4704,
      "Ġtechnological": 4705,
      "position": 4706,
      "Ġassisted": 4707,
      "Ġassisting": 4708,
      "Ġassistance": 4709,
      "Ġassistants": 4710,
      "Ġaddition": 4711,
      "Ġadvancing": 4712,
      "Ġaccessed": 4713,
      "Ġsolve": 4714,
      "Ġsolely": 4715,
      "Ġconstruct": 4716,
      "Ġgenerating": 4717,
      "Ġsupply": 4718,
      "Ġdevelopers": 4719,
      "Ġreadiness": 4720,
      "Ġthroughout": 4721,
      "Ġeffective": 4722,
      "Ġachieves": 4723,
      "Ġcapsize": 4724,
      "Ġcapsizes": 4725,
      "Ġsmart": 4726,
      "Ġpublished": 4727,
      "Ġsee": 4728,
      "Ġmethods": 4729,
      "Ġfrequ": 4730,
      "ĠThings": 4731,
      "Ġemploys": 4732,
      "Ġemerged": 4733,
      "Ġoutage": 4734,
      "Ġoutside": 4735,
      "Ġinternally": 4736,
      "Ġrecordings": 4737,
      "Ġconscience": 4738,
      "Ġverifying": 4739,
      "pendently": 4740,
      "Ġbeneficial": 4741,
      "Ġvariable": 4742,
      "psi": 4743,
      "Ġoptimizing": 4744,
      "Ġcreative": 4745,
      "Ġcreators": 4746,
      "Ġcreativity": 4747,
      "Ġdepending": 4748,
      "Ġdependent": 4749,
      "Ġflowers": 4750,
      "Ġimproved": 4751,
      "Ġhouses": 4752,
      "Ġhoused": 4753,
      "Ġactivity": 4754,
      "Ġspecify": 4755,
      "Ġspecifically": 4756,
      "Ġspecialized": 4757,
      "Ġfeatured": 4758,
      "Ġdoctor": 4759,
      "Ġwinds": 4760,
      "Ġnoisy": 4761,
      "Ġdeployments": 4762,
      "Ġstory": 4763,
      "Ġstories": 4764,
      "Ġvisualizes": 4765,
      "Ġvisualization": 4766,
      "Ġvisualizations": 4767,
      "Ġanytime": 4768,
      "Ġanywhere": 4769,
      "Ġinstruments": 4770,
      "Ġwriter": 4771,
      "Ġenhancing": 4772,
      "Ġdefinition": 4773,
      "Ġfolds": 4774,
      "Ġrequiring": 4775,
      "Ġequally": 4776,
      "Ġhappiness": 4777,
      "Ġjok": 4778,
      "Ġjob": 4779,
      "Ġjoke": 4780,
      "Ġlarger": 4781,
      "sequent": 4782,
      "Ġcapturing": 4783,
      "Ġlisten": 4784,
      "Ġendure": 4785,
      "Ġfiltering": 4786,
      "Ġvertically": 4787,
      "Ġeducator": 4788,
      "Ġclues": 4789,
      "ĠEnglish": 4790,
      "Ġminimizes": 4791,
      "Ġcolors": 4792,
      "Ġfollowed": 4793,
      "Ġefficiently": 4794,
      "Ġwaterproofing": 4795,
      "driven": 4796,
      "worth": 4797,
      "ĠAbsol": 4798,
      "Ġcollisions": 4799,
      "Ġfactual": 4800,
      "Ġdetermined": 4801,
      "Ġtransferring": 4802,
      "Ġdistributes": 4803,
      "Ġdistributing": 4804,
      "uarded": 4805,
      "performing": 4806,
      "Ġadjustments": 4807,
      "Ġauthority": 4808,
      "Ġinitiation": 4809,
      "Ġinitiate": 4810,
      "Ġinitiative": 4811,
      "Ġproficiency": 4812,
      "Ġoffered": 4813,
      "Ġvaluable": 4814,
      "Ġprotective": 4815,
      "Ġpossesses": 4816,
      "Ġcontainerization": 4817,
      "Ġknowledgeable": 4818,
      "Ġmaneuverability": 4819,
      "Ġleast": 4820,
      "ĠClau": 4821,
      "Ġinteraction": 4822,
      "Ġtimestamp": 4823,
      "Ġeliminate": 4824,
      "Ġdiscussed": 4825,
      "Ġimprovement": 4826,
      "Ġmusician": 4827,
      "Ġguaranteed": 4828,
      "Ġpoet": 4829,
      "Ġpoetry": 4830,
      "Ġloses": 4831,
      "Ġcontribute": 4832,
      "Ġcontributes": 4833,
      "Ġcontributing": 4834,
      "Ġcrucial": 4835,
      "Ġdraft": 4836,
      "Ġemotional": 4837,
      "ĠSimulink": 4838,
      "Ġengaged": 4839,
      "Ġengineering": 4840,
      "Ġengaging": 4841,
      "ĠVessels": 4842,
      "Ġunits": 4843,
      "Ġmanageable": 4844,
      "Ġcentimetre": 4845,
      "Ġsecondary": 4846,
      "Ġpaired": 4847,
      "Ġdirection": 4848,
      "Ġlawyer": 4849,
      "Ġnecessitate": 4850,
      "Ġaccompan": 4851,
      "Ġaccomplish": 4852,
      "Ġfirst": 4853,
      "Ġfixed": 4854,
      "processed": 4855,
      "Ġexpandability": 4856,
      "Ġcollaboratively": 4857,
      "Ġrecommendations": 4858,
      "creators": 4859,
      "Ġdreams": 4860,
      "Ġindicated": 4861,
      "Ġindicating": 4862,
      "Ġbooks": 4863,
      "Ġcomplete": 4864,
      "Ġcompleting": 4865,
      "Ġsubsequent": 4866,
      "Ġapproaches": 4867,
      "Ġcalculations": 4868,
      "Ġteacher": 4869,
      "Ġteaching": 4870,
      "Ġcarrying": 4871,
      "Ġchecking": 4872,
      "Ġutilized": 4873,
      "Ġutilize": 4874,
      "satisfact": 4875,
      "Ġtemperature": 4876,
      "Ġcritical": 4877,
      "Ġsnipp": 4878,
      "Ġpolarizing": 4879,
      "Ġcomposed": 4880,
      "Ġcontinue": 4881,
      "Ġorigin": 4882,
      "Ġquantifying": 4883,
      "Ġincorporate": 4884,
      "Ġmaintains": 4885,
      "Ġshipping": 4886,
      "Ġconstantly": 4887,
      "Ġstrategic": 4888,
      "ĠPrecise": 4889,
      "Ġswitches": 4890,
      "Ġpreserves": 4891,
      "Ġpreserving": 4892,
      "disciplined": 4893,
      "Ġhistorical": 4894,
      "Ġsaturation": 4895,
      "Ġinterests": 4896,
      "Ġinterested": 4897,
      "Ġintelligently": 4898,
      "ĠThank": 4899,
      "Ġsignificance": 4900,
      "Ġevaluate": 4901,
      "Ġpsychological": 4902,
      "Ġrepresentation": 4903,
      "Ġphilosophical": 4904,
      "mounted": 4905,
      "Ġtitled": 4906,
      "Ġskills": 4907,
      "Ġproduce": 4908,
      "learning": 4909,
      "Ġnighttime": 4910,
      "Ġkayakers": 4911,
      "ĠExternal": 4912,
      "Ġshowed": 4913,
      "Ġresponsible": 4914,
      "Ġmaterials": 4915,
      "Ġvisualisations": 4916,
      "Ġcrashes": 4917,
      "Ġcharacterizes": 4918,
      "ASVs": 4919,
      "functions": 4920,
      "Ġspeech": 4921,
      "Ġspeak": 4922,
      "Ġinvolves": 4923,
      "Ġinvestigated": 4924,
      "Ġhobby": 4925,
      "Ġhobbies": 4926,
      "Ġcomedy": 4927,
      "Ġcomedian": 4928,
      "Ġcontinues": 4929,
      "Ġcontinually": 4930,
      "Ġpreliminary": 4931,
      "Ġpreliminaries": 4932,
      "Ġsubstitute": 4933,
      "Ġsubstantial": 4934,
      "Ġprioritizing": 4935,
      "Ġseasons": 4936,
      "Ġconsciousness": 4937,
      "Ġpoems": 4938,
      "Ġmechanism": 4939,
      "Ġmechanisms": 4940,
      "Ġdigital": 4941,
      "Ġdigitally": 4942,
      "Ġconducts": 4943,
      "Ġconducted": 4944,
      "Ġspiritual": 4945,
      "Ġaiding": 4946,
      "Ġstarted": 4947,
      "Ġprepare": 4948,
      "Ġupgraded": 4949,
      "Ġincreased": 4950,
      "Ġattentive": 4951,
      "Ġeffectively": 4952,
      "Ġobservation": 4953,
      "Ġexpresses": 4954,
      "blesho": 4955,
      "frequency": 4956,
      "hobby": 4957,
      "surge": 4958,
      "speech": 4959,
      "Ġecosystem": 4960,
      "Ġessential": 4961,
      "Ġtonight": 4962,
      "Ġtroublesho": 4963,
      "informed": 4964,
      "integration": 4965,
      "incomplete": 4966,
      "Ġsusceptible": 4967,
      "Ġsource": 4968,
      "Ġpapers": 4969,
      "Ġpiece": 4970,
      "Ġdifference": 4971,
      "Ġfurther": 4972,
      "Ġfriend": 4973,
      "Ġfoundation": 4974,
      "Ġfatigue": 4975,
      "Ġmalfunctions": 4976,
      "Ġmistakes": 4977,
      "Ġmovies": 4978,
      "aligned": 4979,
      "Ġindependently": 4980,
      "Ġbeliefs": 4981,
      "Ġwireless": 4982,
      "Ġothers": 4983,
      "Ġliving": 4984,
      "Ġprolonged": 4985,
      "ĠButterworth": 4986,
      "Ġrelevant": 4987,
      "Ġtherapy": 4988,
      "Ġongoing": 4989,
      "Ġnervous": 4990,
      "Ġrainbow": 4991,
      "Ġstrive": 4992,
      "Ġstructuring": 4993,
      "Ġcomprehensive": 4994,
      "Ġdepartment": 4995,
      "Ġalongside": 4996,
      "Ġresearched": 4997,
      "Ġadherence": 4998,
      "Ġsuggestions": 4999,
      "Ġautonomy": 5000,
      "Ġautopilot": 5001,
      "Ġdescriptions": 5002,
      "Ġimportant": 5003,
      "Ġupkeep": 5004,
      "Ġprecautions": 5005,
      "ĠAnthropic": 5006,
      "Ġsafeguarded": 5007,
      "ĠEstimation": 5008,
      "Ġjokes": 5009,
      "ĠAbsolutely": 5010,
      "ĠClaude": 5011,
      "Ġaccompanied": 5012,
      "satisfaction": 5013,
      "Ġsnippets": 5014,
      "Ġtroubleshooting": 5015,
      "'.": 5016,
      ")]": 5017,
      "/?": 5018,
      "01": 5019,
      "02": 5020,
      "AD": 5021,
      "Cre": 5022,
      "Coriolis": 5023,
      "DG": 5024,
      "Ex": 5025,
      "Gre": 5026,
      "KS": 5027,
      "NO": 5028,
      "Network": 5029,
      "QR": 5030,
      "Res": 5031,
      "SCHED": 5032,
      "VA": 5033,
      "ahe": 5034,
      "auss": 5035,
      "cin": 5036,
      "cision": 5037,
      "dt": 5038,
      "docker": 5039,
      "eur": 5040,
      "eomet": 5041,
      "fir": 5042,
      "gan": 5043,
      "gated": 5044,
      "gular": 5045,
      "iod": 5046,
      "iagr": 5047,
      "lot": 5048,
      "lied": 5049,
      "lishes": 5050,
      "linalg": 5051,
      "mat": 5052,
      "mal": 5053,
      "main": 5054,
      "mcap": 5055,
      "mavros": 5056,
      "oos": 5057,
      "ogram": 5058,
      "pre": 5059,
      "prin": 5060,
      "rat": 5061,
      "rics": 5062,
      "raw": 5063,
      "rcin": 5064,
      "sort": 5065,
      "sway": 5066,
      "ton": 5067,
      "tage": 5068,
      "ties": 5069,
      "tised": 5070,
      "xN": 5071,
      "yBox": 5072,
      "Ġ*": 5073,
      "Ġ[": 5074,
      "Ġil": 5075,
      "ĠâĢ": 5076,
      "ather": 5077,
      "Ġaim": 5078,
      "eral": 5079,
      "ĠANO": 5080,
      "orld": 5081,
      "orientation": 5082,
      "ormal": 5083,
      "Ġcod": 5084,
      "Ġcore": 5085,
      "Ġcabling": 5086,
      "Ġsome": 5087,
      "Ġsigma": 5088,
      "rete": 5089,
      "Ġpost": 5090,
      "Ġpolling": 5091,
      "ising": 5092,
      "isition": 5093,
      "Ġdiagr": 5094,
      "Ġfigure": 5095,
      "Ġmass": 5096,
      "itive": 5097,
      "alues": 5098,
      "alNetwork": 5099,
      "aring": 5100,
      "Ġbec": 5101,
      "Ġblue": 5102,
      "Ġworld": 5103,
      "strates": 5104,
      "iment": 5105,
      "Ġforces": 5106,
      "Ġliter": 5107,
      "etary": 5108,
      "aming": 5109,
      "Ġpromot": 5110,
      "Ġhind": 5111,
      "lustrates": 5112,
      "oltage": 5113,
      "ĠBoth": 5114,
      "ĠBesides": 5115,
      "Ġrefer": 5116,
      "Ġreport": 5117,
      "Ġconfir": 5118,
      "urity": 5119,
      "ecting": 5120,
      "Ġvoltage": 5121,
      "ĠCAD": 5122,
      "Ġonly": 5123,
      "Ġnormal": 5124,
      "Ġrather": 5125,
      "periment": 5126,
      "ocation": 5127,
      "forward": 5128,
      "ĠBlueBoats": 5129,
      "ĠLQR": 5130,
      "ĠNew": 5131,
      "ĠNeur": 5132,
      "ĠDocking": 5133,
      "otting": 5134,
      "ilogram": 5135,
      "ĠPTP": 5136,
      "ĠPlot": 5137,
      "Ġusef": 5138,
      "ĠMKS": 5139,
      "ablishes": 5140,
      "ĠSway": 5141,
      "ĠSensor": 5142,
      "ĠSDG": 5143,
      "ĠGauss": 5144,
      "vertised": 5145,
      "ption": 5146,
      "empts": 5147,
      "Ġcompares": 5148,
      "Ġcomparing": 5149,
      "outs": 5150,
      "output": 5151,
      "Ġcontent": 5152,
      "Ġdeploys": 5153,
      "rietary": 5154,
      "Ġacqu": 5155,
      "ĠValues": 5156,
      "istical": 5157,
      "lying": 5158,
      "Ġgps": 5159,
      "Ġglobal": 5160,
      "Ġgeomet": 5161,
      "Ġorder": 5162,
      "Ġorgan": 5163,
      "Ġprevi": 5164,
      "Ġpreprocessing": 5165,
      "Ġpreprocessed": 5166,
      "Ġalign": 5167,
      "Ġtrade": 5168,
      "Ġmodific": 5169,
      "Ġmodify": 5170,
      "Ġperiod": 5171,
      "Ġadvertised": 5172,
      "ians": 5173,
      "Ġwasn": 5174,
      "Ġaccelerometer": 5175,
      "ears": 5176,
      "Ġdone": 5177,
      "Ġlook": 5178,
      "ortcom": 5179,
      "umption": 5180,
      "ellers": 5181,
      "velop": 5182,
      "Ġunsuper": 5183,
      "ibly": 5184,
      "Ġkilogram": 5185,
      "Ġscience": 5186,
      "Ġscript": 5187,
      "Ġscrat": 5188,
      "Ġrealistic": 5189,
      "romagnet": 5190,
      "ameters": 5191,
      "Ġsimulating": 5192,
      "Ġdesigning": 5193,
      "Ġplotting": 5194,
      "develop": 5195,
      "Ġintegrity": 5196,
      "Ġintegrate": 5197,
      "Ġintegrates": 5198,
      "Ġchoos": 5199,
      "loop": 5200,
      "ĠFrom": 5201,
      "ĠYaw": 5202,
      "Ġsynchronizing": 5203,
      "Ġrelation": 5204,
      "ĠAngular": 5205,
      "ourages": 5206,
      "Ġappears": 5207,
      "gyro": 5208,
      "Ġshortcom": 5209,
      "Ġallocation": 5210,
      "Ġsped": 5211,
      "Ġspaced": 5212,
      "acted": 5213,
      "ĠmultiEx": 5214,
      "Ġaggre": 5215,
      "ublox": 5216,
      "poses": 5217,
      "Ġposed": 5218,
      "Ġpositions": 5219,
      "Ġreduction": 5220,
      "Ġloaded": 5221,
      "Ġdeploying": 5222,
      "Ġadditive": 5223,
      "Ġimplements": 5224,
      "Ġhighest": 5225,
      "Ġaccessory": 5226,
      "Ġunderlying": 5227,
      "Ġsolves": 5228,
      "Ġconstants": 5229,
      "Ġworkflow": 5230,
      "Ġgenerated": 5231,
      "Ġsupplied": 5232,
      "Ġthroughput": 5233,
      "Ġreceived": 5234,
      "Ġallowed": 5235,
      "Ġmethodology": 5236,
      "Ġempir": 5237,
      "Ġapplication": 5238,
      "Ġpositioned": 5239,
      "Ġpurposes": 5240,
      "Ġconsumption": 5241,
      "Ġdiscouraged": 5242,
      "Ġdiscrete": 5243,
      "Ġdiscourages": 5244,
      "Ġoptimizes": 5245,
      "Ġevolution": 5246,
      "Ġactual": 5247,
      "Ġactivation": 5248,
      "Ġpredictions": 5249,
      "Ġextends": 5250,
      "Ġinitially": 5251,
      "Ġproprietary": 5252,
      "Ġpropellers": 5253,
      "Ġstoring": 5254,
      "Ġvisualize": 5255,
      "Ġdefine": 5256,
      "Ġfolders": 5257,
      "Ġsecured": 5258,
      "Ġsecurity": 5259,
      "ciples": 5260,
      "Ġangle": 5261,
      "Ġangles": 5262,
      "Ġencouraged": 5263,
      "lumes": 5264,
      "Ġdetailing": 5265,
      "Ġminimized": 5266,
      "Ġobtain": 5267,
      "Ġlocations": 5268,
      "Ġexpected": 5269,
      "Ġassigned": 5270,
      "Ġlayouts": 5271,
      "Ġisolated": 5272,
      "ebase": 5273,
      "performance": 5274,
      "Ġoutputs": 5275,
      "Ġtunnel": 5276,
      "Ġmeters": 5277,
      "Ġmetrics": 5278,
      "Ġvalue": 5279,
      "Ġrudder": 5280,
      "Ġcomputing": 5281,
      "Ġdetects": 5282,
      "Ġpossibly": 5283,
      "Ġimprovements": 5284,
      "Ġguarantees": 5285,
      "Ġselecting": 5286,
      "Ġradians": 5287,
      "Ġpresent": 5288,
      "Ġcruising": 5289,
      "Ġdrag": 5290,
      "rotation": 5291,
      "Ġestablishes": 5292,
      "Ġsections": 5293,
      "Ġpaper": 5294,
      "Ġbasis": 5295,
      "Ġprevented": 5296,
      "Ġimmediate": 5297,
      "Ġextracted": 5298,
      "Ġinitialized": 5299,
      "creator": 5300,
      "pdf": 5301,
      "Ġidentify": 5302,
      "Ġoccurred": 5303,
      "Ġproblem": 5304,
      "Ġstatistical": 5305,
      "ĠModelCre": 5306,
      "Ġestimation": 5307,
      "Ġmitigates": 5308,
      "Ġvolumes": 5309,
      "Ġquantify": 5310,
      "Ġincorporating": 5311,
      "Ġtranslated": 5312,
      "Ġelectromagnet": 5313,
      "Ġhistory": 5314,
      "microampere": 5315,
      "ĠParameters": 5316,
      "Ġuniformly": 5317,
      "Ġmanually": 5318,
      "Ġpairs": 5319,
      "Ġcalculation": 5320,
      "lateral": 5321,
      "Ġinfluence": 5322,
      "Ġinertia": 5323,
      "Ġinterfacing": 5324,
      "Ġcommonly": 5325,
      "Ġgraphical": 5326,
      "Ġvalidated": 5327,
      "efficient": 5328,
      "Ġproperties": 5329,
      "Ġstreaming": 5330,
      "Ġparsed": 5331,
      "Ġprioritised": 5332,
      "Ġprioritizes": 5333,
      "Ġcorrected": 5334,
      "Ġbroadcasts": 5335,
      "Ġthrottled": 5336,
      "ĠBBNonLinModelWSomeConstantsCoriolis": 5337,
      "goals": 5338,
      "sideways": 5339,
      "Ġaids": 5340,
      "Ġfitting": 5341,
      "Ġblack": 5342,
      "Ġblocks": 5343,
      "Ġblends": 5344,
      "Ġprepares": 5345,
      "Ġupgrading": 5346,
      "Ġquickly": 5347,
      "Ġincrements": 5348,
      "Ġattempts": 5349,
      "Ġeffects": 5350,
      "Ġobserved": 5351,
      "Ġexpressed": 5352,
      "Ġpoorly": 5353,
      "boats": 5354,
      "Ġrotate": 5355,
      "Ġrotational": 5356,
      "Ġfrequencies": 5357,
      "Ġfrequently": 5358,
      ")].": 5359,
      "GreyBox": 5360,
      "Results": 5361,
      "ahead": 5362,
      "precision": 5363,
      "principles": 5364,
      "sorted": 5365,
      "tonian": 5366,
      "Ġillustrates": 5367,
      "ĠâĢĶ": 5368,
      "Ġaims": 5369,
      "ĠANOVA": 5370,
      "Ġcodebase": 5371,
      "Ġdiagrams": 5372,
      "alNetworks": 5373,
      "Ġbecome": 5374,
      "Ġblueboats": 5375,
      "Ġliterature": 5376,
      "Ġpromotes": 5377,
      "Ġhindered": 5378,
      "Ġconfirmed": 5379,
      "Ġnormalizing": 5380,
      "perimentGreyBox": 5381,
      "ĠNewtonian": 5382,
      "ĠNeuralNetworks": 5383,
      "ĠDockingResults": 5384,
      "ĠPlots": 5385,
      "Ġuseful": 5386,
      "ĠGaussian": 5387,
      "Ġacquisition": 5388,
      "Ġgeometric": 5389,
      "Ġorganize": 5390,
      "Ġprevious": 5391,
      "Ġaligns": 5392,
      "Ġmodifications": 5393,
      "Ġunsupervised": 5394,
      "Ġkilograms": 5395,
      "Ġscratch": 5396,
      "Ġchoosing": 5397,
      "Ġshortcomings": 5398,
      "ĠmultiExperimentGreyBox": 5399,
      "Ġaggregated": 5400,
      "Ġempirical": 5401,
      "Ġobtained": 5402,
      "ĠModelCreator": 5403,
      "Ġelectromagnetic": 5404
    },
    "merges": [
      [
        "Ġ",
        "t"
      ],
      [
        "a",
        "t"
      ],
      [
        "o",
        "n"
      ],
      [
        "i",
        "n"
      ],
      [
        "Ġ",
        "a"
      ],
      [
        "e",
        "r"
      ],
      [
        "e",
        "s"
      ],
      [
        "Ġ",
        "A"
      ],
      [
        "o",
        "r"
      ],
      [
        "h",
        "e"
      ],
      [
        "e",
        "n"
      ],
      [
        "ĠA",
        "I"
      ],
      [
        "Ġ",
        "U"
      ],
      [
        "ĠU",
        "S"
      ],
      [
        "E",
        "R"
      ],
      [
        "Ġ",
        "c"
      ],
      [
        "ĠUS",
        "ER"
      ],
      [
        "Ġ",
        "s"
      ],
      [
        "Ġt",
        "he"
      ],
      [
        "r",
        "e"
      ],
      [
        "Ġ",
        "p"
      ],
      [
        "i",
        "s"
      ],
      [
        "i",
        "on"
      ],
      [
        "Ġ",
        "d"
      ],
      [
        "e",
        "d"
      ],
      [
        "r",
        "o"
      ],
      [
        "i",
        "c"
      ],
      [
        "Ġ",
        "f"
      ],
      [
        "a",
        "n"
      ],
      [
        "Ġ",
        "m"
      ],
      [
        "i",
        "t"
      ],
      [
        "in",
        "g"
      ],
      [
        "Ġ",
        "W"
      ],
      [
        "ĠW",
        "h"
      ],
      [
        "a",
        "l"
      ],
      [
        "a",
        "r"
      ],
      [
        "Ġa",
        "n"
      ],
      [
        "Ġ",
        "in"
      ],
      [
        "Ġ",
        "b"
      ],
      [
        "o",
        "u"
      ],
      [
        "Ġ",
        "w"
      ],
      [
        "s",
        "t"
      ],
      [
        "e",
        "l"
      ],
      [
        "at",
        "ion"
      ],
      [
        "Ġ",
        "o"
      ],
      [
        "Ġan",
        "d"
      ],
      [
        "i",
        "m"
      ],
      [
        "Ġ",
        "I"
      ],
      [
        "e",
        "c"
      ],
      [
        "ĠWh",
        "at"
      ],
      [
        "en",
        "t"
      ],
      [
        "Ġf",
        "or"
      ],
      [
        "Ġ",
        "l"
      ],
      [
        "Ġt",
        "o"
      ],
      [
        "e",
        "t"
      ],
      [
        "Ġ",
        "is"
      ],
      [
        "a",
        "m"
      ],
      [
        "o",
        "m"
      ],
      [
        "u",
        "t"
      ],
      [
        "Ġp",
        "ro"
      ],
      [
        "Ġ",
        "h"
      ],
      [
        "a",
        "c"
      ],
      [
        "o",
        "at"
      ],
      [
        "Ġ",
        "R"
      ],
      [
        "l",
        "u"
      ],
      [
        "o",
        "l"
      ],
      [
        "Ġ",
        "B"
      ],
      [
        "Ġ",
        "re"
      ],
      [
        "o",
        "w"
      ],
      [
        "l",
        "e"
      ],
      [
        "Ġc",
        "on"
      ],
      [
        "Ġ",
        "u"
      ],
      [
        "i",
        "d"
      ],
      [
        "u",
        "r"
      ],
      [
        "i",
        "g"
      ],
      [
        "es",
        "s"
      ],
      [
        "Ġo",
        "f"
      ],
      [
        "ic",
        "h"
      ],
      [
        "ec",
        "t"
      ],
      [
        "c",
        "e"
      ],
      [
        "Ġt",
        "h"
      ],
      [
        "it",
        "h"
      ],
      [
        "er",
        "s"
      ],
      [
        "ĠWh",
        "ich"
      ],
      [
        "Ġ",
        "v"
      ],
      [
        "Ġ",
        "C"
      ],
      [
        "O",
        "S"
      ],
      [
        "'",
        "s"
      ],
      [
        "Ġ",
        "on"
      ],
      [
        "o",
        "d"
      ],
      [
        "u",
        "l"
      ],
      [
        "Ġ",
        "n"
      ],
      [
        "lu",
        "e"
      ],
      [
        "Ġ",
        "r"
      ],
      [
        "ĠB",
        "lue"
      ],
      [
        "Ġ",
        "y"
      ],
      [
        "a",
        "s"
      ],
      [
        "Ġ",
        "T"
      ],
      [
        "a",
        "g"
      ],
      [
        "p",
        "er"
      ],
      [
        "o",
        "c"
      ],
      [
        "f",
        "or"
      ],
      [
        "B",
        "oat"
      ],
      [
        "v",
        "e"
      ],
      [
        "Ġy",
        "ou"
      ],
      [
        "ĠBlue",
        "Boat"
      ],
      [
        "Ġ",
        "H"
      ],
      [
        "Ġ",
        "e"
      ],
      [
        "Ġ",
        "L"
      ],
      [
        "Ġ",
        "N"
      ],
      [
        "Ġ",
        "D"
      ],
      [
        "o",
        "t"
      ],
      [
        "t",
        "er"
      ],
      [
        "c",
        "h"
      ],
      [
        "for",
        "m"
      ],
      [
        "Ġw",
        "ith"
      ],
      [
        "Ġc",
        "om"
      ],
      [
        "en",
        "s"
      ],
      [
        "Ġs",
        "t"
      ],
      [
        "a",
        "d"
      ],
      [
        "ar",
        "d"
      ],
      [
        "i",
        "l"
      ],
      [
        "Ġ",
        "P"
      ],
      [
        "Ġu",
        "s"
      ],
      [
        "Ġ",
        "M"
      ],
      [
        "a",
        "b"
      ],
      [
        "ĠH",
        "ow"
      ],
      [
        "m",
        "ent"
      ],
      [
        "Ġ",
        "S"
      ],
      [
        "it",
        "y"
      ],
      [
        "Ġd",
        "o"
      ],
      [
        "Ġ",
        "G"
      ],
      [
        "u",
        "n"
      ],
      [
        "ĠR",
        "OS"
      ],
      [
        "v",
        "er"
      ],
      [
        "u",
        "st"
      ],
      [
        "a",
        "in"
      ],
      [
        "Ġ",
        "en"
      ],
      [
        "p",
        "t"
      ],
      [
        "e",
        "m"
      ],
      [
        "at",
        "e"
      ],
      [
        "es",
        "t"
      ],
      [
        "Ġcom",
        "p"
      ],
      [
        "ou",
        "t"
      ],
      [
        "a",
        "re"
      ],
      [
        "o",
        "s"
      ],
      [
        "g",
        "r"
      ],
      [
        "Ġcon",
        "t"
      ],
      [
        "Ġ",
        "it"
      ],
      [
        "Ġd",
        "e"
      ],
      [
        "r",
        "i"
      ],
      [
        "an",
        "d"
      ],
      [
        "Ġa",
        "c"
      ],
      [
        "Ġa",
        "re"
      ],
      [
        "Ġ",
        "V"
      ],
      [
        "is",
        "t"
      ],
      [
        "Ġs",
        "y"
      ],
      [
        "j",
        "ect"
      ],
      [
        "ĠT",
        "he"
      ],
      [
        "p",
        "p"
      ],
      [
        "a",
        "v"
      ],
      [
        "Ġc",
        "an"
      ],
      [
        "v",
        "id"
      ],
      [
        "l",
        "y"
      ],
      [
        "i",
        "z"
      ],
      [
        "an",
        "ce"
      ],
      [
        "Ġpro",
        "vid"
      ],
      [
        "Ġ",
        "g"
      ],
      [
        "Ġpro",
        "ject"
      ],
      [
        "Ġdo",
        "es"
      ],
      [
        "Ġ",
        "or"
      ],
      [
        "Ġb",
        "e"
      ],
      [
        "u",
        "re"
      ],
      [
        "Ġp",
        "re"
      ],
      [
        "ro",
        "l"
      ],
      [
        "a",
        "y"
      ],
      [
        "form",
        "ation"
      ],
      [
        "Ġs",
        "ens"
      ],
      [
        "at",
        "a"
      ],
      [
        "Ġe",
        "x"
      ],
      [
        "A",
        "R"
      ],
      [
        "im",
        "e"
      ],
      [
        "w",
        "are"
      ],
      [
        "Ġin",
        "formation"
      ],
      [
        "st",
        "em"
      ],
      [
        "Ġh",
        "a"
      ],
      [
        "ic",
        "al"
      ],
      [
        "Ġa",
        "b"
      ],
      [
        "ig",
        "h"
      ],
      [
        "Ġth",
        "es"
      ],
      [
        "r",
        "on"
      ],
      [
        "Ġa",
        "l"
      ],
      [
        "Ġsens",
        "or"
      ],
      [
        "D",
        "AR"
      ],
      [
        "i",
        "DAR"
      ],
      [
        "ĠL",
        "iDAR"
      ],
      [
        "i",
        "f"
      ],
      [
        "i",
        "ve"
      ],
      [
        "q",
        "u"
      ],
      [
        "u",
        "s"
      ],
      [
        "Ġt",
        "r"
      ],
      [
        "Ġm",
        "od"
      ],
      [
        "ic",
        "ro"
      ],
      [
        "ou",
        "s"
      ],
      [
        "ag",
        "e"
      ],
      [
        "Ġd",
        "ata"
      ],
      [
        "oc",
        "k"
      ],
      [
        "Ġb",
        "oat"
      ],
      [
        "Ġr",
        "es"
      ],
      [
        "Ġm",
        "icro"
      ],
      [
        "Ġha",
        "ve"
      ],
      [
        "Ġab",
        "out"
      ],
      [
        "Ġcont",
        "rol"
      ],
      [
        "t",
        "e"
      ],
      [
        "Ġa",
        "s"
      ],
      [
        "p",
        "l"
      ],
      [
        "in",
        "e"
      ],
      [
        "at",
        "ed"
      ],
      [
        "Ġp",
        "er"
      ],
      [
        "ion",
        "s"
      ],
      [
        "ol",
        "l"
      ],
      [
        "ig",
        "n"
      ],
      [
        "Ġ",
        "("
      ],
      [
        "f",
        "er"
      ],
      [
        "Ġb",
        "y"
      ],
      [
        "t",
        "h"
      ],
      [
        "Ġa",
        "d"
      ],
      [
        "Ġw",
        "h"
      ],
      [
        "Ġs",
        "u"
      ],
      [
        "at",
        "es"
      ],
      [
        "is",
        "ion"
      ],
      [
        "ĠI",
        "n"
      ],
      [
        "b",
        "st"
      ],
      [
        "ĠM",
        "y"
      ],
      [
        "per",
        "e"
      ],
      [
        "o",
        "f"
      ],
      [
        "Ġsy",
        "stem"
      ],
      [
        "en",
        "c"
      ],
      [
        "Ġc",
        "o"
      ],
      [
        "ic",
        "s"
      ],
      [
        "ation",
        "s"
      ],
      [
        "i",
        "an"
      ],
      [
        "â",
        "Ģ"
      ],
      [
        "o",
        "ard"
      ],
      [
        "ol",
        "o"
      ],
      [
        "ag",
        "n"
      ],
      [
        "igh",
        "t"
      ],
      [
        "Ġw",
        "as"
      ],
      [
        "A",
        "m"
      ],
      [
        "Ġac",
        "c"
      ],
      [
        "Ġmicro",
        "Am"
      ],
      [
        "ĠmicroAm",
        "pere"
      ],
      [
        "ent",
        "i"
      ],
      [
        "ac",
        "k"
      ],
      [
        "ess",
        "el"
      ],
      [
        "e",
        "ar"
      ],
      [
        "Ġ",
        "ro"
      ],
      [
        "'",
        "t"
      ],
      [
        "Ġd",
        "on"
      ],
      [
        "Ġin",
        "ter"
      ],
      [
        "C",
        "A"
      ],
      [
        "Ġl",
        "o"
      ],
      [
        "Ġa",
        "ut"
      ],
      [
        "Ġth",
        "r"
      ],
      [
        "Ġthes",
        "is"
      ],
      [
        "bst",
        "ac"
      ],
      [
        "Ġ",
        "he"
      ],
      [
        "or",
        "t"
      ],
      [
        "Ġp",
        "ar"
      ],
      [
        "Ġmod",
        "el"
      ],
      [
        "on",
        "om"
      ],
      [
        "Ġus",
        "ed"
      ],
      [
        "âĢ",
        "Ĳ"
      ],
      [
        "p",
        "e"
      ],
      [
        "u",
        "m"
      ],
      [
        "ĠA",
        "s"
      ],
      [
        "ab",
        "le"
      ],
      [
        "Ġthr",
        "ust"
      ],
      [
        "onom",
        "ous"
      ],
      [
        "l",
        "es"
      ],
      [
        "ur",
        "ing"
      ],
      [
        "ĠC",
        "an"
      ],
      [
        "or",
        "k"
      ],
      [
        "c",
        "t"
      ],
      [
        "i",
        "es"
      ],
      [
        "Ġv",
        "essel"
      ],
      [
        "ĠN",
        "M"
      ],
      [
        "el",
        "l"
      ],
      [
        "v",
        "el"
      ],
      [
        "ĠI",
        "t"
      ],
      [
        "Ġ",
        "O"
      ],
      [
        "Ġd",
        "es"
      ],
      [
        "Ġu",
        "n"
      ],
      [
        "y",
        "n"
      ],
      [
        "Ġt",
        "est"
      ],
      [
        "ce",
        "pt"
      ],
      [
        "ul",
        "t"
      ],
      [
        "i",
        "b"
      ],
      [
        "Ġ",
        "im"
      ],
      [
        "or",
        "d"
      ],
      [
        "i",
        "k"
      ],
      [
        "Ġu",
        "p"
      ],
      [
        "P",
        "C"
      ],
      [
        "st",
        "er"
      ],
      [
        "Ġ",
        "3"
      ],
      [
        "P",
        "S"
      ],
      [
        "y",
        "s"
      ],
      [
        "Ġt",
        "y"
      ],
      [
        "Ġs",
        "im"
      ],
      [
        "Ġb",
        "ut"
      ],
      [
        "te",
        "gr"
      ],
      [
        "E",
        "D"
      ],
      [
        "Ġ",
        "k"
      ],
      [
        "Ġs",
        "c"
      ],
      [
        "it",
        "e"
      ],
      [
        "ĠNM",
        "PC"
      ],
      [
        "N",
        "S"
      ],
      [
        "Ġw",
        "at"
      ],
      [
        "Ġo",
        "bstac"
      ],
      [
        "ĠG",
        "NS"
      ],
      [
        "ĠGNS",
        "S"
      ],
      [
        "Ġm",
        "an"
      ],
      [
        "el",
        "y"
      ],
      [
        "am",
        "e"
      ],
      [
        "ut",
        "er"
      ],
      [
        "Ġaut",
        "onomous"
      ],
      [
        "M",
        "U"
      ],
      [
        "is",
        "s"
      ],
      [
        "Ġd",
        "uring"
      ],
      [
        "al",
        "l"
      ],
      [
        "ĠI",
        "MU"
      ],
      [
        "Ġre",
        "al"
      ],
      [
        "ch",
        "ron"
      ],
      [
        "cept",
        "ion"
      ],
      [
        "g",
        "e"
      ],
      [
        "ro",
        "m"
      ],
      [
        "an",
        "s"
      ],
      [
        "am",
        "et"
      ],
      [
        "yn",
        "am"
      ],
      [
        "Ġsim",
        "ul"
      ],
      [
        "Ġm",
        "e"
      ],
      [
        "i",
        "v"
      ],
      [
        "v",
        "i"
      ],
      [
        "Ġf",
        "rom"
      ],
      [
        "ac",
        "e"
      ],
      [
        "Ġdes",
        "ign"
      ],
      [
        "Ġ",
        "K"
      ],
      [
        "Ġp",
        "l"
      ],
      [
        "Ġd",
        "ynam"
      ],
      [
        "Ġm",
        "iss"
      ],
      [
        "d",
        "e"
      ],
      [
        "u",
        "al"
      ],
      [
        "ul",
        "l"
      ],
      [
        "Ġpar",
        "amet"
      ],
      [
        "er",
        "e"
      ],
      [
        "en",
        "ce"
      ],
      [
        "Ġv",
        "i"
      ],
      [
        "D",
        "S"
      ],
      [
        "a",
        "p"
      ],
      [
        "Ġ",
        "Z"
      ],
      [
        "Ġ",
        "qu"
      ],
      [
        "Ġsy",
        "n"
      ],
      [
        "m",
        "s"
      ],
      [
        "Ġin",
        "tegr"
      ],
      [
        "Ġf",
        "av"
      ],
      [
        "ar",
        "y"
      ],
      [
        "Ġpre",
        "c"
      ],
      [
        "Ġsyn",
        "chron"
      ],
      [
        "Ġfav",
        "or"
      ],
      [
        "is",
        "e"
      ],
      [
        "Ġd",
        "et"
      ],
      [
        "Ġn",
        "ot"
      ],
      [
        "ĠP",
        "ro"
      ],
      [
        "Ġ",
        "2"
      ],
      [
        "in",
        "d"
      ],
      [
        "Ġc",
        "h"
      ],
      [
        "ar",
        "agn"
      ],
      [
        "ĠV",
        "aragn"
      ],
      [
        "ĠVaragn",
        "olo"
      ],
      [
        "l",
        "o"
      ],
      [
        "p",
        "le"
      ],
      [
        "is",
        "k"
      ],
      [
        "Ġf",
        "i"
      ],
      [
        "ĠZ",
        "ED"
      ],
      [
        "a",
        "f"
      ],
      [
        "n",
        "ect"
      ],
      [
        "t",
        "ime"
      ],
      [
        "t",
        "ware"
      ],
      [
        "Ġ",
        "6"
      ],
      [
        "Ġ",
        "F"
      ],
      [
        "Ġ",
        "Y"
      ],
      [
        "Ġm",
        "ess"
      ],
      [
        "et",
        "s"
      ],
      [
        "Ġcon",
        "nect"
      ],
      [
        "Ġn",
        "e"
      ],
      [
        "ock",
        "ing"
      ],
      [
        "of",
        "tware"
      ],
      [
        "b",
        "ot"
      ],
      [
        "c",
        "l"
      ],
      [
        "c",
        "ess"
      ],
      [
        "ĠA",
        "l"
      ],
      [
        "ec",
        "h"
      ],
      [
        "Ġprovid",
        "ing"
      ],
      [
        "Ġ",
        "\""
      ],
      [
        "Ġ",
        "0"
      ],
      [
        "Ġo",
        "ver"
      ],
      [
        "et",
        "w"
      ],
      [
        "Ġyou",
        "r"
      ],
      [
        "enc",
        "y"
      ],
      [
        "Ġo",
        "per"
      ],
      [
        "ow",
        "er"
      ],
      [
        "Ġper",
        "ception"
      ],
      [
        "ear",
        "ch"
      ],
      [
        "f",
        "ig"
      ],
      [
        "p",
        "on"
      ],
      [
        "at",
        "or"
      ],
      [
        "Ġp",
        "r"
      ],
      [
        "Ġit",
        "s"
      ],
      [
        "Ġwat",
        "er"
      ],
      [
        "g",
        "or"
      ],
      [
        "x",
        "im"
      ],
      [
        "Ġs",
        "oftware"
      ],
      [
        "Ġf",
        "oc"
      ],
      [
        "Ġre",
        "c"
      ],
      [
        "Ġal",
        "gor"
      ],
      [
        "oll",
        "ision"
      ],
      [
        "Ġsynchron",
        "iz"
      ],
      [
        "Ġfoc",
        "us"
      ],
      [
        "Ġalgor",
        "ith"
      ],
      [
        "ing",
        "s"
      ],
      [
        "ĠWh",
        "o"
      ],
      [
        "Ġin",
        "c"
      ],
      [
        "ĠR",
        "e"
      ],
      [
        "Ġres",
        "earch"
      ],
      [
        "Ġfavor",
        "ite"
      ],
      [
        "Ġ",
        "1"
      ],
      [
        "en",
        "d"
      ],
      [
        "id",
        "ance"
      ],
      [
        "ard",
        "ware"
      ],
      [
        "a",
        "st"
      ],
      [
        "el",
        "oc"
      ],
      [
        "ĠD",
        "o"
      ],
      [
        "Ġup",
        "d"
      ],
      [
        "a",
        "il"
      ],
      [
        "g",
        "h"
      ],
      [
        "Ġt",
        "im"
      ],
      [
        "il",
        "ity"
      ],
      [
        "ri",
        "b"
      ],
      [
        "f",
        "ess"
      ],
      [
        "o",
        "p"
      ],
      [
        "Ġre",
        "l"
      ],
      [
        "n",
        "ing"
      ],
      [
        "t",
        "s"
      ],
      [
        "v",
        "is"
      ],
      [
        "Ġl",
        "ik"
      ],
      [
        "Ġn",
        "od"
      ],
      [
        "gr",
        "en"
      ],
      [
        "Ġprovid",
        "es"
      ],
      [
        "ster",
        "gren"
      ],
      [
        "ĠAl",
        "stergren"
      ],
      [
        "i",
        "al"
      ],
      [
        "l",
        "p"
      ],
      [
        "Ġ",
        "J"
      ],
      [
        "Ġd",
        "ist"
      ],
      [
        "Ġm",
        "ain"
      ],
      [
        "Ġhe",
        "lp"
      ],
      [
        "ech",
        "n"
      ],
      [
        "eloc",
        "ity"
      ],
      [
        "c",
        "es"
      ],
      [
        "l",
        "d"
      ],
      [
        "r",
        "y"
      ],
      [
        "u",
        "d"
      ],
      [
        "Ġa",
        "m"
      ],
      [
        "ĠA",
        "n"
      ],
      [
        "ou",
        "r"
      ],
      [
        "am",
        "ian"
      ],
      [
        "ac",
        "h"
      ],
      [
        "as",
        "ed"
      ],
      [
        "ĠD",
        "amian"
      ],
      [
        "Ġen",
        "vi"
      ],
      [
        "ron",
        "ment"
      ],
      [
        "Ġtr",
        "ans"
      ],
      [
        "Ġas",
        "s"
      ],
      [
        "ĠDamian",
        "o"
      ],
      [
        "Ġenvi",
        "ronment"
      ],
      [
        "Ġ",
        "at"
      ],
      [
        "er",
        "a"
      ],
      [
        "Ġs",
        "et"
      ],
      [
        "am",
        "era"
      ],
      [
        "Ġwh",
        "ich"
      ],
      [
        "ĠY",
        "es"
      ],
      [
        "f",
        "f"
      ],
      [
        "r",
        "u"
      ],
      [
        "on",
        "d"
      ],
      [
        "Ġf",
        "r"
      ],
      [
        "Ġm",
        "ult"
      ],
      [
        "it",
        "ion"
      ],
      [
        "Ġfor",
        "m"
      ],
      [
        "Ġcom",
        "m"
      ],
      [
        "Ġus",
        "ing"
      ],
      [
        "av",
        "ig"
      ],
      [
        "D",
        "OS"
      ],
      [
        "d",
        "u"
      ],
      [
        "l",
        "ed"
      ],
      [
        "m",
        "ot"
      ],
      [
        "Ġ",
        "5"
      ],
      [
        "Ġa",
        "pp"
      ],
      [
        "ĠA",
        "CA"
      ],
      [
        "ent",
        "s"
      ],
      [
        "Ġsu",
        "per"
      ],
      [
        "fess",
        "or"
      ],
      [
        "ĠACA",
        "DOS"
      ],
      [
        "R",
        "I"
      ],
      [
        "Ġt",
        "ime"
      ],
      [
        "Ġm",
        "a"
      ],
      [
        "ar",
        "i"
      ],
      [
        "Ġh",
        "ardware"
      ],
      [
        "Ġcon",
        "fig"
      ],
      [
        "Ġvi",
        "a"
      ],
      [
        "g",
        "y"
      ],
      [
        "Ġs",
        "af"
      ],
      [
        "ab",
        "ility"
      ],
      [
        "Ġg",
        "u"
      ],
      [
        "Ġsensor",
        "s"
      ],
      [
        "Ġtr",
        "ain"
      ],
      [
        "Ġinc",
        "lu"
      ],
      [
        ")",
        "."
      ],
      [
        "e",
        "p"
      ],
      [
        "f",
        "ace"
      ],
      [
        "g",
        "s"
      ],
      [
        "s",
        "es"
      ],
      [
        "er",
        "v"
      ],
      [
        "Ġr",
        "un"
      ],
      [
        "ib",
        "r"
      ],
      [
        "Ġdynam",
        "ic"
      ],
      [
        "Ġ",
        "E"
      ],
      [
        "ĠA",
        "re"
      ],
      [
        "Ġc",
        "amera"
      ],
      [
        "Ġs",
        "h"
      ],
      [
        "ro",
        "u"
      ],
      [
        "ar",
        "an"
      ],
      [
        "ou",
        "n"
      ],
      [
        "Ġl",
        "at"
      ],
      [
        "Ġpr",
        "im"
      ],
      [
        "Ġp",
        "h"
      ],
      [
        "an",
        "t"
      ],
      [
        "Ġpro",
        "cess"
      ],
      [
        "ĠD",
        "DS"
      ],
      [
        "ĠP",
        "PS"
      ],
      [
        "Ġacc",
        "ur"
      ],
      [
        "b",
        "oard"
      ],
      [
        "c",
        "i"
      ],
      [
        "j",
        "er"
      ],
      [
        "k",
        "en"
      ],
      [
        "o",
        "st"
      ],
      [
        "s",
        "en"
      ],
      [
        "Ġp",
        "ack"
      ],
      [
        "im",
        "it"
      ],
      [
        "ec",
        "ond"
      ],
      [
        "Ġl",
        "imit"
      ],
      [
        "ĠB",
        "jer"
      ],
      [
        "Ġcomp",
        "uter"
      ],
      [
        "Ġal",
        "l"
      ],
      [
        "ys",
        "ical"
      ],
      [
        "ĠBjer",
        "ken"
      ],
      [
        "o",
        "in"
      ],
      [
        "p",
        "ro"
      ],
      [
        "or",
        "s"
      ],
      [
        "Ġres",
        "pon"
      ],
      [
        "Ġper",
        "form"
      ],
      [
        "Ġsimul",
        "ation"
      ],
      [
        "bot",
        "ics"
      ],
      [
        "Ġconfig",
        "ur"
      ],
      [
        "Ġ",
        "ens"
      ],
      [
        "Ġc",
        "ur"
      ],
      [
        "Ġs",
        "p"
      ],
      [
        "Ġd",
        "is"
      ],
      [
        "ut",
        "ion"
      ],
      [
        "ac",
        "t"
      ],
      [
        "ur",
        "es"
      ],
      [
        "ĠC",
        "RI"
      ],
      [
        "ag",
        "es"
      ],
      [
        "Ġmult",
        "i"
      ],
      [
        "e",
        "f"
      ],
      [
        "Ġ",
        "OS"
      ],
      [
        "Ġa",
        "g"
      ],
      [
        "Ġd",
        "ocking"
      ],
      [
        "ic",
        "e"
      ],
      [
        "Ġh",
        "and"
      ],
      [
        "pl",
        "o"
      ],
      [
        "rou",
        "gh"
      ],
      [
        "d",
        "er"
      ],
      [
        "g",
        "re"
      ],
      [
        "Ġto",
        "p"
      ],
      [
        "Ġpro",
        "t"
      ],
      [
        "ter",
        "e"
      ],
      [
        "Ġlik",
        "e"
      ],
      [
        "a",
        "w"
      ],
      [
        "l",
        "er"
      ],
      [
        "l",
        "sen"
      ],
      [
        "u",
        "b"
      ],
      [
        "Ġd",
        "ec"
      ],
      [
        "ic",
        "ation"
      ],
      [
        "ar",
        "lsen"
      ],
      [
        "et",
        "h"
      ],
      [
        "id",
        "e"
      ],
      [
        "ĠK",
        "arlsen"
      ],
      [
        "Ġph",
        "ysical"
      ],
      [
        "r",
        "ess"
      ],
      [
        "at",
        "ing"
      ],
      [
        "or",
        "e"
      ],
      [
        "Ġ6",
        "4"
      ],
      [
        "Ġupd",
        "ates"
      ],
      [
        "Ġtim",
        "ing"
      ],
      [
        "Ġsuper",
        "vis"
      ],
      [
        "plo",
        "y"
      ],
      [
        "y",
        "stem"
      ],
      [
        "Ġp",
        "ower"
      ],
      [
        "ro",
        "s"
      ],
      [
        "Ġin",
        "t"
      ],
      [
        "ou",
        "ld"
      ],
      [
        "un",
        "d"
      ],
      [
        "Ġde",
        "vel"
      ],
      [
        "Ġty",
        "p"
      ],
      [
        "Ġty",
        "pe"
      ],
      [
        "Ġf",
        "e"
      ],
      [
        "el",
        "t"
      ],
      [
        "ect",
        "ion"
      ],
      [
        "Ġobstac",
        "le"
      ],
      [
        "Ġparamet",
        "er"
      ],
      [
        "P",
        "U"
      ],
      [
        "Ġt",
        "echn"
      ],
      [
        "Ġa",
        "v"
      ],
      [
        "en",
        "er"
      ],
      [
        "an",
        "g"
      ],
      [
        "Ġm",
        "ar"
      ],
      [
        "im",
        "ers"
      ],
      [
        "ĠI",
        "P"
      ],
      [
        "ĠI",
        "s"
      ],
      [
        "Ġre",
        "mot"
      ],
      [
        "ĠC",
        "ollision"
      ],
      [
        "fer",
        "ence"
      ],
      [
        "pe",
        "ed"
      ],
      [
        "Ġmess",
        "age"
      ],
      [
        "ets",
        "on"
      ],
      [
        "ĠRe",
        "imers"
      ],
      [
        "ĠJ",
        "etson"
      ],
      [
        "Ġinclu",
        "d"
      ],
      [
        "e",
        "g"
      ],
      [
        "i",
        "re"
      ],
      [
        "p",
        "os"
      ],
      [
        "w",
        "ay"
      ],
      [
        "at",
        "am"
      ],
      [
        "at",
        "ely"
      ],
      [
        "ĠA",
        "ut"
      ],
      [
        "Ġc",
        "atam"
      ],
      [
        "Ġp",
        "os"
      ],
      [
        "ro",
        "und"
      ],
      [
        "Ġre",
        "du"
      ],
      [
        "Ġus",
        "e"
      ],
      [
        "ĠS",
        "enti"
      ],
      [
        "Ġpre",
        "fer"
      ],
      [
        "Ġobstac",
        "les"
      ],
      [
        "oun",
        "t"
      ],
      [
        "Ġrespon",
        "ses"
      ],
      [
        "Ġcatam",
        "aran"
      ],
      [
        "i",
        "ent"
      ],
      [
        "at",
        "ter"
      ],
      [
        "he",
        "n"
      ],
      [
        "Ġb",
        "atter"
      ],
      [
        "Ġthes",
        "es"
      ],
      [
        "Ġlo",
        "ad"
      ],
      [
        "ĠPro",
        "fessor"
      ],
      [
        "Ġass",
        "ist"
      ],
      [
        "Ġtrain",
        "ing"
      ],
      [
        "ub",
        "l"
      ],
      [
        "p",
        "ort"
      ],
      [
        "Ġc",
        "ust"
      ],
      [
        "Ġof",
        "f"
      ],
      [
        "Ġde",
        "ploy"
      ],
      [
        "Ġex",
        "per"
      ],
      [
        "Ġad",
        "d"
      ],
      [
        "Ġim",
        "ple"
      ],
      [
        "Ġmiss",
        "ions"
      ],
      [
        "Ġcust",
        "om"
      ],
      [
        "Ġimple",
        "ment"
      ],
      [
        "N",
        "U"
      ],
      [
        "P",
        "I"
      ],
      [
        "T",
        "NU"
      ],
      [
        "a",
        "un"
      ],
      [
        "Ġ",
        "if"
      ],
      [
        "an",
        "n"
      ],
      [
        "Ġh",
        "igh"
      ],
      [
        "Ġprovid",
        "e"
      ],
      [
        "Ġad",
        "v"
      ],
      [
        "Ġacc",
        "ess"
      ],
      [
        "ct",
        "ion"
      ],
      [
        "ord",
        "in"
      ],
      [
        "Ġmiss",
        "ion"
      ],
      [
        "h",
        "er"
      ],
      [
        "i",
        "r"
      ],
      [
        "k",
        "s"
      ],
      [
        "n",
        "ow"
      ],
      [
        "r",
        "in"
      ],
      [
        "at",
        "form"
      ],
      [
        "Ġp",
        "ers"
      ],
      [
        "ĠM",
        "CA"
      ],
      [
        "Ġex",
        "ec"
      ],
      [
        "Ġun",
        "der"
      ],
      [
        "Ġtest",
        "s"
      ],
      [
        "Ġpl",
        "atform"
      ],
      [
        "Ġne",
        "ed"
      ],
      [
        "Ġsynchroniz",
        "ation"
      ],
      [
        "Ġfr",
        "ame"
      ],
      [
        "Ġlat",
        "ency"
      ],
      [
        "Ġcur",
        "r"
      ],
      [
        "Ġpers",
        "on"
      ],
      [
        "ĠMCA",
        "P"
      ],
      [
        "A",
        "V"
      ],
      [
        "P",
        "N"
      ],
      [
        "R",
        "L"
      ],
      [
        "a",
        "pt"
      ],
      [
        "Ġs",
        "ol"
      ],
      [
        "Ġcon",
        "st"
      ],
      [
        "Ġv",
        "elocity"
      ],
      [
        "ul",
        "ar"
      ],
      [
        "ĠD",
        "RL"
      ],
      [
        "ĠG",
        "PS"
      ],
      [
        "Ġcont",
        "ain"
      ],
      [
        "ĠV",
        "PN"
      ],
      [
        "etw",
        "ork"
      ],
      [
        "oin",
        "t"
      ],
      [
        "'",
        "m"
      ],
      [
        "6",
        "0"
      ],
      [
        "B",
        "oard"
      ],
      [
        "d",
        "ic"
      ],
      [
        "p",
        "ut"
      ],
      [
        "Ġs",
        "ur"
      ],
      [
        "Ġw",
        "ork"
      ],
      [
        "ĠR",
        "o"
      ],
      [
        "ĠR",
        "isk"
      ],
      [
        "Ġon",
        "board"
      ],
      [
        "Ġn",
        "etwork"
      ],
      [
        "Ġg",
        "ener"
      ],
      [
        "Ġsu",
        "pp"
      ],
      [
        "Ġco",
        "ordin"
      ],
      [
        "ear",
        "ning"
      ],
      [
        "Ġalgorith",
        "m"
      ],
      [
        "Ġdevel",
        "op"
      ],
      [
        "ĠSenti",
        "Board"
      ],
      [
        "ac",
        "y"
      ],
      [
        "Ġre",
        "ad"
      ],
      [
        "id",
        "d"
      ],
      [
        "Ġth",
        "rough"
      ],
      [
        "ĠS",
        "ystem"
      ],
      [
        "ock",
        "er"
      ],
      [
        "Ġk",
        "now"
      ],
      [
        "Ġprec",
        "ise"
      ],
      [
        "Ġprim",
        "ary"
      ],
      [
        "Ġaccur",
        "acy"
      ],
      [
        "eth",
        "od"
      ],
      [
        "Ġmar",
        "ine"
      ],
      [
        "pos",
        "e"
      ],
      [
        "P",
        "O"
      ],
      [
        "f",
        "t"
      ],
      [
        "on",
        "t"
      ],
      [
        "ro",
        "xim"
      ],
      [
        "Ġn",
        "avig"
      ],
      [
        "Ġe",
        "ff"
      ],
      [
        "de",
        "x"
      ],
      [
        "Ġparamet",
        "ers"
      ],
      [
        "Ġbatter",
        "y"
      ],
      [
        "roxim",
        "ately"
      ],
      [
        "5",
        "0"
      ],
      [
        "a",
        "o"
      ],
      [
        "e",
        "en"
      ],
      [
        "i",
        "e"
      ],
      [
        "Ġ",
        "Q"
      ],
      [
        "Ġ",
        "el"
      ],
      [
        "Ġt",
        "w"
      ],
      [
        "on",
        "g"
      ],
      [
        "Ġa",
        "ch"
      ],
      [
        "Ġs",
        "peed"
      ],
      [
        "Ġf",
        "il"
      ],
      [
        "Ġre",
        "ce"
      ],
      [
        "ĠC",
        "ao"
      ],
      [
        "Ġst",
        "and"
      ],
      [
        "ab",
        "les"
      ],
      [
        "Ġcontrol",
        "ler"
      ],
      [
        "th",
        "er"
      ],
      [
        "Ġthrust",
        "er"
      ],
      [
        "Ġdesign",
        "ed"
      ],
      [
        "aun",
        "ch"
      ],
      [
        "Ġsupp",
        "ort"
      ],
      [
        "Ġach",
        "ie"
      ],
      [
        "6",
        "7"
      ],
      [
        "T",
        "K"
      ],
      [
        "v",
        "ers"
      ],
      [
        "Ġc",
        "al"
      ],
      [
        "Ġp",
        "ri"
      ],
      [
        "Ġm",
        "ot"
      ],
      [
        "Ġm",
        "ore"
      ],
      [
        "ar",
        "b"
      ],
      [
        "Ġst",
        "ud"
      ],
      [
        "Ġst",
        "ability"
      ],
      [
        "pt",
        "im"
      ],
      [
        "Ġinformation",
        "al"
      ],
      [
        "ĠIn",
        "dex"
      ],
      [
        "enc",
        "es"
      ],
      [
        "Ġintegr",
        "ation"
      ],
      [
        "Ġprec",
        "ision"
      ],
      [
        "Ġform",
        "at"
      ],
      [
        "Ġgu",
        "idance"
      ],
      [
        "Ġconfigur",
        "ation"
      ],
      [
        "Ġprefer",
        "ences"
      ],
      [
        "Ġpri",
        "or"
      ],
      [
        "P",
        "and"
      ],
      [
        "o",
        "x"
      ],
      [
        "o",
        "idance"
      ],
      [
        "at",
        "te"
      ],
      [
        "er",
        "m"
      ],
      [
        "Ġc",
        "ap"
      ],
      [
        "Ġs",
        "m"
      ],
      [
        "Ġs",
        "erv"
      ],
      [
        "Ġp",
        "ubl"
      ],
      [
        "Ġb",
        "etw"
      ],
      [
        "ĠL",
        "atte"
      ],
      [
        "Ġall",
        "ow"
      ],
      [
        "Pand",
        "a"
      ],
      [
        "Ġbetw",
        "een"
      ],
      [
        "ĠLatte",
        "Panda"
      ],
      [
        "i",
        "ed"
      ],
      [
        "i",
        "agn"
      ],
      [
        "o",
        "S"
      ],
      [
        "on",
        "ik"
      ],
      [
        "ĠA",
        "pp"
      ],
      [
        "Ġs",
        "e"
      ],
      [
        "Ġd",
        "ri"
      ],
      [
        "Ġm",
        "ethod"
      ],
      [
        "Ġb",
        "oard"
      ],
      [
        "ect",
        "ed"
      ],
      [
        "Ġr",
        "isk"
      ],
      [
        "ĠT",
        "o"
      ],
      [
        "ĠT",
        "elt"
      ],
      [
        "ĠD",
        "ocker"
      ],
      [
        "ad",
        "em"
      ],
      [
        "Ġen",
        "cl"
      ],
      [
        "Ġac",
        "adem"
      ],
      [
        "if",
        "ic"
      ],
      [
        "Ġsystem",
        "s"
      ],
      [
        "olo",
        "gy"
      ],
      [
        "iv",
        "ity"
      ],
      [
        "Ġnod",
        "es"
      ],
      [
        "Ġperson",
        "al"
      ],
      [
        "iagn",
        "ost"
      ],
      [
        "onik",
        "a"
      ],
      [
        "ĠTelt",
        "onika"
      ],
      [
        "Ġencl",
        "os"
      ],
      [
        "Ġacadem",
        "ic"
      ],
      [
        "on",
        "e"
      ],
      [
        "Ġd",
        "id"
      ],
      [
        "Ġf",
        "re"
      ],
      [
        "ĠWh",
        "y"
      ],
      [
        "el",
        "d"
      ],
      [
        "ut",
        "e"
      ],
      [
        "ol",
        "ic"
      ],
      [
        "Ġcomp",
        "ress"
      ],
      [
        "os",
        "en"
      ],
      [
        "Ġro",
        "uter"
      ],
      [
        "Ġch",
        "osen"
      ],
      [
        "Ġalgorith",
        "ms"
      ],
      [
        "ail",
        "s"
      ],
      [
        "Ġnod",
        "e"
      ],
      [
        "ru",
        "ct"
      ],
      [
        "Ġperform",
        "ance"
      ],
      [
        "ann",
        "el"
      ],
      [
        "Ġeff",
        "ic"
      ],
      [
        "T",
        "X"
      ],
      [
        "U",
        "TX"
      ],
      [
        "o",
        "od"
      ],
      [
        "at",
        "ic"
      ],
      [
        "en",
        "ari"
      ],
      [
        "Ġh",
        "ull"
      ],
      [
        "ĠR",
        "UTX"
      ],
      [
        "ow",
        "n"
      ],
      [
        "ĠT",
        "h"
      ],
      [
        "Ġe",
        "m"
      ],
      [
        "ĠN",
        "TNU"
      ],
      [
        "Ġcomp",
        "on"
      ],
      [
        "iz",
        "ed"
      ],
      [
        "ure",
        "d"
      ],
      [
        "Ġ3",
        "60"
      ],
      [
        "Ġk",
        "ind"
      ],
      [
        "lo",
        "x"
      ],
      [
        "lo",
        "ad"
      ],
      [
        "Ġdist",
        "rib"
      ],
      [
        "ros",
        "s"
      ],
      [
        "Ġremot",
        "e"
      ],
      [
        "dic",
        "t"
      ],
      [
        "ĠRo",
        "botics"
      ],
      [
        "b",
        "lox"
      ],
      [
        "r",
        "ain"
      ],
      [
        "w",
        "ork"
      ],
      [
        "Ġ",
        "out"
      ],
      [
        "Ġs",
        "ign"
      ],
      [
        "Ġf",
        "un"
      ],
      [
        "Ġm",
        "ount"
      ],
      [
        "Ġh",
        "arb"
      ],
      [
        "oc",
        "ol"
      ],
      [
        "ĠN",
        "or"
      ],
      [
        "Ġus",
        "es"
      ],
      [
        "th",
        "ing"
      ],
      [
        "enti",
        "al"
      ],
      [
        "Ġinter",
        "n"
      ],
      [
        "Ġhe",
        "ad"
      ],
      [
        "Ġmess",
        "ages"
      ],
      [
        "Ġrec",
        "ord"
      ],
      [
        "Ġset",
        "t"
      ],
      [
        "Ġapp",
        "l"
      ],
      [
        "Ġdec",
        "k"
      ],
      [
        "Ġpos",
        "ition"
      ],
      [
        "Ġimplement",
        "ation"
      ],
      [
        "c",
        "ed"
      ],
      [
        "i",
        "le"
      ],
      [
        "i",
        "um"
      ],
      [
        "l",
        "ine"
      ],
      [
        "m",
        "od"
      ],
      [
        "v",
        "es"
      ],
      [
        "Ġt",
        "e"
      ],
      [
        "Ġc",
        "l"
      ],
      [
        "Ġp",
        "ur"
      ],
      [
        "Ġb",
        "us"
      ],
      [
        "Ġb",
        "ased"
      ],
      [
        "Ġw",
        "ere"
      ],
      [
        "Ġw",
        "ould"
      ],
      [
        "Ġw",
        "hen"
      ],
      [
        "Ġl",
        "earning"
      ],
      [
        "Ġl",
        "ong"
      ],
      [
        "Ġcon",
        "s"
      ],
      [
        "Ġv",
        "er"
      ],
      [
        "ĠN",
        "o"
      ],
      [
        "Ġwith",
        "out"
      ],
      [
        "ĠP",
        "PO"
      ],
      [
        "oll",
        "ard"
      ],
      [
        "Ġman",
        "y"
      ],
      [
        "iv",
        "ers"
      ],
      [
        "Ġdis",
        "c"
      ],
      [
        "Ġag",
        "ent"
      ],
      [
        "Ġtop",
        "ic"
      ],
      [
        "Ġint",
        "o"
      ],
      [
        "ĠQ",
        "oS"
      ],
      [
        "0",
        "0"
      ],
      [
        "T",
        "ime"
      ],
      [
        "e",
        "u"
      ],
      [
        "e",
        "ight"
      ],
      [
        "p",
        "end"
      ],
      [
        "at",
        "ive"
      ],
      [
        "en",
        "ef"
      ],
      [
        "Ġs",
        "tere"
      ],
      [
        "re",
        "ad"
      ],
      [
        "Ġd",
        "iagnost"
      ],
      [
        "Ġm",
        "idd"
      ],
      [
        "Ġb",
        "enef"
      ],
      [
        "le",
        "ware"
      ],
      [
        "Ġcon",
        "d"
      ],
      [
        "Ġv",
        "ari"
      ],
      [
        "Ġon",
        "e"
      ],
      [
        "as",
        "e"
      ],
      [
        "ust",
        "er"
      ],
      [
        "iz",
        "e"
      ],
      [
        "Ġex",
        "pl"
      ],
      [
        "Ġco",
        "st"
      ],
      [
        "Ġlo",
        "gs"
      ],
      [
        "ĠO",
        "uster"
      ],
      [
        "Ġsc",
        "enari"
      ],
      [
        "Ġcomm",
        "un"
      ],
      [
        "Ġpack",
        "s"
      ],
      [
        "Ġsupervis",
        "or"
      ],
      [
        "Ġtyp",
        "ical"
      ],
      [
        "Ġredu",
        "ces"
      ],
      [
        "Ġstand",
        "ard"
      ],
      [
        "Ġpur",
        "pose"
      ],
      [
        "Ġstere",
        "o"
      ],
      [
        "Ġmidd",
        "leware"
      ],
      [
        "i",
        "x"
      ],
      [
        "i",
        "ver"
      ],
      [
        "p",
        "s"
      ],
      [
        "s",
        "econd"
      ],
      [
        "Ġ",
        "`"
      ],
      [
        "is",
        "h"
      ],
      [
        "an",
        "ces"
      ],
      [
        "ou",
        "d"
      ],
      [
        "el",
        "f"
      ],
      [
        "ation",
        "al"
      ],
      [
        "Ġo",
        "ptim"
      ],
      [
        "Ġto",
        "ol"
      ],
      [
        "ĠR",
        "TK"
      ],
      [
        "ol",
        "d"
      ],
      [
        "Ġv",
        "is"
      ],
      [
        "are",
        "d"
      ],
      [
        "Ġthrust",
        "ers"
      ],
      [
        "ib",
        "le"
      ],
      [
        "Ġme",
        "as"
      ],
      [
        "ms",
        "gs"
      ],
      [
        "Ġfi",
        "eld"
      ],
      [
        "Ġconnect",
        "ivity"
      ],
      [
        "Ġrel",
        "ated"
      ],
      [
        "Ġtrans",
        "port"
      ],
      [
        "Ġsol",
        "ver"
      ],
      [
        "Ġnavig",
        "ation"
      ],
      [
        "D",
        "DS"
      ],
      [
        "O",
        "L"
      ],
      [
        "R",
        "e"
      ],
      [
        "y",
        "cl"
      ],
      [
        "Ġ",
        "+"
      ],
      [
        "Ġc",
        "re"
      ],
      [
        "Ġm",
        "at"
      ],
      [
        "it",
        "ions"
      ],
      [
        "al",
        "ys"
      ],
      [
        "ar",
        "t"
      ],
      [
        "Ġl",
        "ang"
      ],
      [
        "ĠC",
        "OL"
      ],
      [
        "ĠC",
        "ycl"
      ],
      [
        "Ġe",
        "v"
      ],
      [
        "ĠN",
        "X"
      ],
      [
        "Ġst",
        "ep"
      ],
      [
        "gr",
        "am"
      ],
      [
        "Ġde",
        "pend"
      ],
      [
        "ĠO",
        "rin"
      ],
      [
        "de",
        "gre"
      ],
      [
        "Ġsynchroniz",
        "ed"
      ],
      [
        "Ġlimit",
        "ations"
      ],
      [
        "Ġframe",
        "work"
      ],
      [
        "ĠApp",
        "roximately"
      ],
      [
        "one",
        "DDS"
      ],
      [
        "Ġbenef",
        "it"
      ],
      [
        "alys",
        "is"
      ],
      [
        "Ġlang",
        "u"
      ],
      [
        "ĠCycl",
        "oneDDS"
      ],
      [
        "degre",
        "e"
      ],
      [
        "O",
        "F"
      ],
      [
        "b",
        "ack"
      ],
      [
        "c",
        "rib"
      ],
      [
        "i",
        "or"
      ],
      [
        "n",
        "ot"
      ],
      [
        "u",
        "es"
      ],
      [
        "Ġc",
        "ollision"
      ],
      [
        "Ġd",
        "ual"
      ],
      [
        "Ġf",
        "l"
      ],
      [
        "Ġl",
        "ibr"
      ],
      [
        "et",
        "y"
      ],
      [
        "Ġcan",
        "not"
      ],
      [
        "Ġim",
        "pro"
      ],
      [
        "all",
        "back"
      ],
      [
        "Ġqu",
        "est"
      ],
      [
        "Ġsaf",
        "ety"
      ],
      [
        "Ġprot",
        "ocol"
      ],
      [
        "Ġfun",
        "ction"
      ],
      [
        "Ġcond",
        "itions"
      ],
      [
        "Ġlibr",
        "ary"
      ],
      [
        "V",
        "O"
      ],
      [
        "k",
        "e"
      ],
      [
        "o",
        "v"
      ],
      [
        "r",
        "t"
      ],
      [
        "v",
        "ed"
      ],
      [
        "Ġ",
        "x"
      ],
      [
        "Ġs",
        "ing"
      ],
      [
        "Ġp",
        "olic"
      ],
      [
        "Ġm",
        "in"
      ],
      [
        "al",
        "ity"
      ],
      [
        "Ġb",
        "r"
      ],
      [
        "Ġw",
        "ide"
      ],
      [
        "am",
        "es"
      ],
      [
        "Ġh",
        "ous"
      ],
      [
        "le",
        "vel"
      ],
      [
        "ur",
        "b"
      ],
      [
        "Ġth",
        "is"
      ],
      [
        "ĠH",
        "z"
      ],
      [
        "ĠN",
        "avig"
      ],
      [
        "ens",
        "ive"
      ],
      [
        "ver",
        "y"
      ],
      [
        "Ġac",
        "t"
      ],
      [
        "Ġac",
        "ross"
      ],
      [
        "ĠV",
        "elocity"
      ],
      [
        "Ġpre",
        "dict"
      ],
      [
        "Ġex",
        "t"
      ],
      [
        "Ġinter",
        "face"
      ],
      [
        "ĠO",
        "bstac"
      ],
      [
        "Ġdynam",
        "ics"
      ],
      [
        "Ġdist",
        "urb"
      ],
      [
        "Ġenvironment",
        "al"
      ],
      [
        "Ġcomm",
        "and"
      ],
      [
        "Ġrun",
        "s"
      ],
      [
        "Ġsp",
        "ec"
      ],
      [
        "Ġfe",
        "at"
      ],
      [
        "Ġcurr",
        "ent"
      ],
      [
        "ont",
        "rol"
      ],
      [
        "Ġrece",
        "iver"
      ],
      [
        "Ġstud",
        "ent"
      ],
      [
        "Ġsign",
        "al"
      ],
      [
        "ĠNavig",
        "ator"
      ],
      [
        "8",
        "6"
      ],
      [
        "D",
        "OF"
      ],
      [
        "e",
        "vel"
      ],
      [
        "i",
        "p"
      ],
      [
        "â",
        "Ī"
      ],
      [
        "Ġ",
        "/"
      ],
      [
        "in",
        "for"
      ],
      [
        "Ġd",
        "oc"
      ],
      [
        "Ġin",
        "it"
      ],
      [
        "Ġb",
        "od"
      ],
      [
        "Ġw",
        "ind"
      ],
      [
        "ut",
        "or"
      ],
      [
        "ce",
        "ment"
      ],
      [
        "ĠC",
        "om"
      ],
      [
        "od",
        "ocking"
      ],
      [
        "Ġn",
        "o"
      ],
      [
        "ĠG",
        "PU"
      ],
      [
        "Ġde",
        "gre"
      ],
      [
        "Ġav",
        "oidance"
      ],
      [
        "ĠAut",
        "odocking"
      ],
      [
        "Ġdeploy",
        "ment"
      ],
      [
        "Ġexec",
        "utor"
      ],
      [
        "Ġsur",
        "face"
      ],
      [
        "âĪ",
        "Ĵ"
      ],
      [
        "infor",
        "cement"
      ],
      [
        "Ġbod",
        "y"
      ],
      [
        "Ġdegre",
        "es"
      ],
      [
        "2",
        "5"
      ],
      [
        "I",
        "d"
      ],
      [
        "S",
        "V"
      ],
      [
        "e",
        "ver"
      ],
      [
        "g",
        "es"
      ],
      [
        "j",
        "am"
      ],
      [
        "p",
        "ull"
      ],
      [
        "s",
        "ion"
      ],
      [
        "t",
        "en"
      ],
      [
        "er",
        "thing"
      ],
      [
        "en",
        "jam"
      ],
      [
        "Ġc",
        "ell"
      ],
      [
        "Ġo",
        "ther"
      ],
      [
        "Ġl",
        "ight"
      ],
      [
        "Ġl",
        "aunch"
      ],
      [
        "Ġpro",
        "p"
      ],
      [
        "ol",
        "ab"
      ],
      [
        "ĠB",
        "enjam"
      ],
      [
        "Ġth",
        "at"
      ],
      [
        "ĠC",
        "PU"
      ],
      [
        "ĠN",
        "ame"
      ],
      [
        "ter",
        "n"
      ],
      [
        "Ġst",
        "or"
      ],
      [
        "il",
        "y"
      ],
      [
        "ĠS",
        "tere"
      ],
      [
        "Ġen",
        "able"
      ],
      [
        "Ġwh",
        "at"
      ],
      [
        "Ġro",
        "botics"
      ],
      [
        "Ġsaf",
        "e"
      ],
      [
        "ĠSystem",
        "Id"
      ],
      [
        "Ġintern",
        "et"
      ],
      [
        "Ġvis",
        "ual"
      ],
      [
        "ĠCOL",
        "AV"
      ],
      [
        "olab",
        "s"
      ],
      [
        "ĠBenjam",
        "in"
      ],
      [
        "ĠStere",
        "olabs"
      ],
      [
        ")",
        ","
      ],
      [
        "0",
        "3"
      ],
      [
        "L",
        "in"
      ],
      [
        "S",
        "ight"
      ],
      [
        "b",
        "er"
      ],
      [
        "b",
        "ased"
      ],
      [
        "c",
        "al"
      ],
      [
        "c",
        "om"
      ],
      [
        "m",
        "ed"
      ],
      [
        "r",
        "ate"
      ],
      [
        "s",
        "enti"
      ],
      [
        "u",
        "p"
      ],
      [
        "u",
        "ment"
      ],
      [
        "he",
        "d"
      ],
      [
        "Ġc",
        "el"
      ],
      [
        "Ġp",
        "ay"
      ],
      [
        "Ġp",
        "ort"
      ],
      [
        "Ġan",
        "y"
      ],
      [
        "Ġin",
        "st"
      ],
      [
        "Ġb",
        "u"
      ],
      [
        "Ġw",
        "r"
      ],
      [
        "Ġpro",
        "gram"
      ],
      [
        "Ġcon",
        "ver"
      ],
      [
        "ith",
        "ium"
      ],
      [
        "Ġy",
        "aw"
      ],
      [
        "ĠL",
        "OS"
      ],
      [
        "ĠL",
        "ine"
      ],
      [
        "Ġen",
        "h"
      ],
      [
        "Ġen",
        "ables"
      ],
      [
        "Ġde",
        "f"
      ],
      [
        "Ġg",
        "round"
      ],
      [
        "if",
        "fer"
      ],
      [
        "Ġad",
        "apt"
      ],
      [
        "Ġmodel",
        "s"
      ],
      [
        "Ġfi",
        "le"
      ],
      [
        "Ġoper",
        "ate"
      ],
      [
        "Ġenvironment",
        "s"
      ],
      [
        "Ġprocess",
        "ing"
      ],
      [
        "Ġinclud",
        "ing"
      ],
      [
        "ĠAut",
        "onomous"
      ],
      [
        "Ġadv",
        "ant"
      ],
      [
        "Ġconst",
        "rain"
      ],
      [
        "Ġcontain",
        "ers"
      ],
      [
        "Ġdevelop",
        "ment"
      ],
      [
        "Ġsm",
        "all"
      ],
      [
        "Ġsett",
        "ings"
      ],
      [
        "Ġcommun",
        "ication"
      ],
      [
        "Ġdoc",
        "ument"
      ],
      [
        "Ġno",
        "ise"
      ],
      [
        "03",
        "7"
      ],
      [
        "cal",
        "e"
      ],
      [
        "Ġpay",
        "load"
      ],
      [
        "B",
        "C"
      ],
      [
        "c",
        "ing"
      ],
      [
        "c",
        "ur"
      ],
      [
        "d",
        "own"
      ],
      [
        "e",
        "at"
      ],
      [
        "g",
        "g"
      ],
      [
        "u",
        "le"
      ],
      [
        "w",
        "eg"
      ],
      [
        "ĠU",
        "n"
      ],
      [
        "is",
        "ation"
      ],
      [
        "ion",
        "al"
      ],
      [
        "Ġf",
        "old"
      ],
      [
        "Ġm",
        "ed"
      ],
      [
        "Ġin",
        "put"
      ],
      [
        "Ġb",
        "erthing"
      ],
      [
        "Ġh",
        "um"
      ],
      [
        "Ġre",
        "qu"
      ],
      [
        "Ġe",
        "qu"
      ],
      [
        "ĠN",
        "ot"
      ],
      [
        "ĠS",
        "BC"
      ],
      [
        "ay",
        "s"
      ],
      [
        "Ġha",
        "pp"
      ],
      [
        "Ġmod",
        "ule"
      ],
      [
        "oll",
        "ow"
      ],
      [
        "Ġman",
        "eu"
      ],
      [
        "Ġdet",
        "ection"
      ],
      [
        "ĠF",
        "ast"
      ],
      [
        "Ġne",
        "ur"
      ],
      [
        "Ġ1",
        "2"
      ],
      [
        "Ġfr",
        "ames"
      ],
      [
        "ibr",
        "ation"
      ],
      [
        "Ġhand",
        "le"
      ],
      [
        "Ġsupervis",
        "ed"
      ],
      [
        "Ġtw",
        "in"
      ],
      [
        "Ġcal",
        "ibration"
      ],
      [
        "erm",
        "in"
      ],
      [
        "Ġenclos",
        "ure"
      ],
      [
        "ĠNor",
        "weg"
      ],
      [
        "Re",
        "ference"
      ],
      [
        "Ġsing",
        "le"
      ],
      [
        "ĠNorweg",
        "ian"
      ],
      [
        "h",
        "or"
      ],
      [
        "k",
        "ing"
      ],
      [
        "o",
        "per"
      ],
      [
        "x",
        "t"
      ],
      [
        "Ġ",
        "8"
      ],
      [
        "Ġ",
        "j"
      ],
      [
        "Ġs",
        "ec"
      ],
      [
        "Ġl",
        "ar"
      ],
      [
        "am",
        "s"
      ],
      [
        "om",
        "et"
      ],
      [
        "Ġh",
        "ere"
      ],
      [
        "ac",
        "ity"
      ],
      [
        "Ġv",
        "ect"
      ],
      [
        "ĠS",
        "t"
      ],
      [
        "ĠG",
        "ood"
      ],
      [
        "ri",
        "al"
      ],
      [
        "Ġtr",
        "ack"
      ],
      [
        "Ġsu",
        "ch"
      ],
      [
        "Ġro",
        "ut"
      ],
      [
        "Ġvessel",
        "s"
      ],
      [
        "ition",
        "al"
      ],
      [
        "Ġsh",
        "ut"
      ],
      [
        "ci",
        "pl"
      ],
      [
        "Ġphysical",
        "ly"
      ],
      [
        "Ġtyp",
        "es"
      ],
      [
        "ire",
        "d"
      ],
      [
        "Ġoff",
        "ers"
      ],
      [
        "Ġcap",
        "acity"
      ],
      [
        "Ġposition",
        "ing"
      ],
      [
        "Ġquest",
        "ions"
      ],
      [
        "Ġdisturb",
        "ances"
      ],
      [
        "i",
        "ency"
      ],
      [
        "l",
        "ess"
      ],
      [
        "p",
        "al"
      ],
      [
        "s",
        "e"
      ],
      [
        "t",
        "al"
      ],
      [
        "t",
        "ers"
      ],
      [
        "t",
        "ical"
      ],
      [
        "Ġc",
        "apt"
      ],
      [
        "is",
        "ed"
      ],
      [
        "ic",
        "ations"
      ],
      [
        "an",
        "os"
      ],
      [
        "ar",
        "ily"
      ],
      [
        "Ġan",
        "g"
      ],
      [
        "Ġl",
        "ist"
      ],
      [
        "Ġto",
        "tal"
      ],
      [
        "Ġn",
        "anos"
      ],
      [
        "ĠT",
        "echn"
      ],
      [
        "il",
        "l"
      ],
      [
        "ĠS",
        "VO"
      ],
      [
        "Ġen",
        "c"
      ],
      [
        "Ġen",
        "d"
      ],
      [
        "pt",
        "h"
      ],
      [
        "Ġde",
        "pth"
      ],
      [
        "pp",
        "ing"
      ],
      [
        "Ġqu",
        "ality"
      ],
      [
        "pon",
        "ent"
      ],
      [
        "xim",
        "um"
      ],
      [
        "Ġrel",
        "i"
      ],
      [
        "Ġma",
        "ximum"
      ],
      [
        "Ġprim",
        "arily"
      ],
      [
        "ci",
        "pal"
      ],
      [
        "Ġconfigur",
        "ations"
      ],
      [
        "Ġens",
        "uring"
      ],
      [
        "Ġhand",
        "les"
      ],
      [
        "Ġdeploy",
        "ed"
      ],
      [
        "Ġfil",
        "ter"
      ],
      [
        "Ġachie",
        "ved"
      ],
      [
        "Ġver",
        "tical"
      ],
      [
        "read",
        "ed"
      ],
      [
        "Ġscenari",
        "os"
      ],
      [
        "Ġlangu",
        "age"
      ],
      [
        "Ġbu",
        "il"
      ],
      [
        "Ġconstrain",
        "ts"
      ],
      [
        "cipl",
        "in"
      ],
      [
        "Ġnanos",
        "econd"
      ],
      [
        "ĠTechn",
        "ology"
      ],
      [
        "6",
        "4"
      ],
      [
        "d",
        "ust"
      ],
      [
        "e",
        "w"
      ],
      [
        "f",
        "ix"
      ],
      [
        "h",
        "av"
      ],
      [
        "l",
        "ar"
      ],
      [
        "n",
        "g"
      ],
      [
        "p",
        "ber"
      ],
      [
        "s",
        "ues"
      ],
      [
        "w",
        "eight"
      ],
      [
        "Ġ",
        "ed"
      ],
      [
        "on",
        "it"
      ],
      [
        "or",
        "re"
      ],
      [
        "or",
        "iz"
      ],
      [
        "Ġc",
        "lu"
      ],
      [
        "Ġs",
        "way"
      ],
      [
        "Ġf",
        "a"
      ],
      [
        "Ġm",
        "y"
      ],
      [
        "Ġm",
        "onit"
      ],
      [
        "it",
        "ies"
      ],
      [
        "Ġb",
        "et"
      ],
      [
        "Ġb",
        "ollard"
      ],
      [
        "Ġis",
        "sues"
      ],
      [
        "Ġh",
        "oriz"
      ],
      [
        "ĠR",
        "as"
      ],
      [
        "lu",
        "m"
      ],
      [
        "lu",
        "lar"
      ],
      [
        "ul",
        "sion"
      ],
      [
        "Ġn",
        "ame"
      ],
      [
        "Ġr",
        "est"
      ],
      [
        "Ġe",
        "ach"
      ],
      [
        "ĠL",
        "ower"
      ],
      [
        "Ġst",
        "rate"
      ],
      [
        "ĠP",
        "i"
      ],
      [
        "ĠM",
        "AV"
      ],
      [
        "ab",
        "led"
      ],
      [
        "ĠG",
        "PI"
      ],
      [
        "pp",
        "ed"
      ],
      [
        "Ġbe",
        "hav"
      ],
      [
        "Ġmicro",
        "second"
      ],
      [
        "Ġtest",
        "ing"
      ],
      [
        "all",
        "ed"
      ],
      [
        "Ġdet",
        "ail"
      ],
      [
        "Ġrun",
        "time"
      ],
      [
        "ĠE",
        "ng"
      ],
      [
        "Ġaccur",
        "ate"
      ],
      [
        "Ġadd",
        "itional"
      ],
      [
        "Ġpubl",
        "ish"
      ],
      [
        "Ġallow",
        "ing"
      ],
      [
        "Ġcompon",
        "ents"
      ],
      [
        "Ġhead",
        "ing"
      ],
      [
        "Ġcl",
        "ock"
      ],
      [
        "ov",
        "ing"
      ],
      [
        "Ġmin",
        "im"
      ],
      [
        "Ġprop",
        "ulsion"
      ],
      [
        "Lin",
        "k"
      ],
      [
        "Ġcel",
        "lular"
      ],
      [
        "Ġadvant",
        "age"
      ],
      [
        "Ġtrack",
        "ing"
      ],
      [
        "pber",
        "ry"
      ],
      [
        "Ġmonit",
        "or"
      ],
      [
        "Ġbet",
        "ter"
      ],
      [
        "ĠRas",
        "pberry"
      ],
      [
        "ĠMAV",
        "Link"
      ],
      [
        "ĠGPI",
        "O"
      ],
      [
        "Ġmicrosecond",
        "s"
      ],
      [
        "l",
        "ing"
      ],
      [
        "n",
        "es"
      ],
      [
        "n",
        "ess"
      ],
      [
        "o",
        "k"
      ],
      [
        "r",
        "ic"
      ],
      [
        "t",
        "ed"
      ],
      [
        "y",
        "th"
      ],
      [
        "in",
        "es"
      ],
      [
        "Ġa",
        "ff"
      ],
      [
        "ĠA",
        "SV"
      ],
      [
        "Ġc",
        "ar"
      ],
      [
        "Ġc",
        "ent"
      ],
      [
        "Ġp",
        "oint"
      ],
      [
        "Ġo",
        "b"
      ],
      [
        "Ġl",
        "oc"
      ],
      [
        "et",
        "nes"
      ],
      [
        "Ġpro",
        "fessor"
      ],
      [
        "id",
        "th"
      ],
      [
        "Ġn",
        "um"
      ],
      [
        "as",
        "on"
      ],
      [
        "ĠT",
        "ails"
      ],
      [
        "ĠL",
        "etnes"
      ],
      [
        "ĠD",
        "C"
      ],
      [
        "ch",
        "annel"
      ],
      [
        "ĠP",
        "yth"
      ],
      [
        "gr",
        "ad"
      ],
      [
        "Ġex",
        "p"
      ],
      [
        "Ġwh",
        "o"
      ],
      [
        "Ġpar",
        "t"
      ],
      [
        "Ġme",
        "an"
      ],
      [
        "Ġass",
        "ign"
      ],
      [
        "Ġens",
        "ure"
      ],
      [
        "Ġtechn",
        "ical"
      ],
      [
        "Ġexper",
        "im"
      ],
      [
        "Ġcompress",
        "ion"
      ],
      [
        "Ġeffic",
        "iency"
      ],
      [
        "Ġdistrib",
        "ution"
      ],
      [
        "Ġharb",
        "our"
      ],
      [
        "ivers",
        "ity"
      ],
      [
        "Ġstep",
        "s"
      ],
      [
        "med",
        "i"
      ],
      [
        "Ġmed",
        "ian"
      ],
      [
        "ĠTails",
        "cale"
      ],
      [
        "ĠPyth",
        "on"
      ],
      [
        "D",
        "I"
      ],
      [
        "I",
        "DI"
      ],
      [
        "V",
        "IDI"
      ],
      [
        "d",
        "ay"
      ],
      [
        "f",
        "ul"
      ],
      [
        "o",
        "g"
      ],
      [
        "p",
        "ec"
      ],
      [
        "r",
        "es"
      ],
      [
        "r",
        "ch"
      ],
      [
        "u",
        "an"
      ],
      [
        "Ġc",
        "he"
      ],
      [
        "Ġc",
        "ol"
      ],
      [
        "Ġc",
        "allback"
      ],
      [
        "re",
        "e"
      ],
      [
        "ed",
        "om"
      ],
      [
        "Ġf",
        "ollow"
      ],
      [
        "it",
        "ect"
      ],
      [
        "al",
        "ly"
      ],
      [
        "Ġb",
        "est"
      ],
      [
        "im",
        "in"
      ],
      [
        "Ġl",
        "ay"
      ],
      [
        "Ġto",
        "day"
      ],
      [
        "Ġis",
        "ol"
      ],
      [
        "Ġre",
        "ference"
      ],
      [
        "le",
        "x"
      ],
      [
        "ĠL",
        "uan"
      ],
      [
        "ĠN",
        "VIDI"
      ],
      [
        "ter",
        "m"
      ],
      [
        "ĠP",
        "oint"
      ],
      [
        "iz",
        "ing"
      ],
      [
        "Ġsens",
        "e"
      ],
      [
        "if",
        "e"
      ],
      [
        "if",
        "ied"
      ],
      [
        "enc",
        "ies"
      ],
      [
        "olo",
        "g"
      ],
      [
        "agn",
        "et"
      ],
      [
        "ell",
        "o"
      ],
      [
        "Ġch",
        "annel"
      ],
      [
        "Ġwater",
        "pro"
      ],
      [
        "ry",
        "pt"
      ],
      [
        "Ġmulti",
        "ple"
      ],
      [
        "Ġtop",
        "ics"
      ],
      [
        "Ġinclud",
        "es"
      ],
      [
        "way",
        "s"
      ],
      [
        "Ġtw",
        "o"
      ],
      [
        "Ġachie",
        "ve"
      ],
      [
        "Ġfre",
        "edom"
      ],
      [
        "Ġeffic",
        "ient"
      ],
      [
        "Ġmount",
        "ed"
      ],
      [
        "Ġappl",
        "ications"
      ],
      [
        "Time",
        "Reference"
      ],
      [
        "Ġdiagnost",
        "ics"
      ],
      [
        "ĠObstac",
        "le"
      ],
      [
        "Ġspec",
        "ific"
      ],
      [
        "iffer",
        "ential"
      ],
      [
        "rch",
        "itect"
      ],
      [
        "ĠNVIDI",
        "A"
      ],
      [
        "Ġwaterpro",
        "of"
      ],
      [
        "rchitect",
        "ure"
      ],
      [
        "2",
        "0"
      ],
      [
        "P",
        "A"
      ],
      [
        "a",
        "x"
      ],
      [
        "b",
        "and"
      ],
      [
        "b",
        "ox"
      ],
      [
        "c",
        "hed"
      ],
      [
        "d",
        "ri"
      ],
      [
        "e",
        "b"
      ],
      [
        "g",
        "est"
      ],
      [
        "i",
        "ence"
      ],
      [
        "m",
        "it"
      ],
      [
        "m",
        "ers"
      ],
      [
        "o",
        "bst"
      ],
      [
        "r",
        "ist"
      ],
      [
        "r",
        "ical"
      ],
      [
        "s",
        "h"
      ],
      [
        "s",
        "o"
      ],
      [
        "s",
        "yn"
      ],
      [
        "t",
        "ight"
      ],
      [
        "v",
        "ision"
      ],
      [
        "w",
        "or"
      ],
      [
        "Ġ",
        "9"
      ],
      [
        "Ġ",
        "enti"
      ],
      [
        "Ġt",
        "a"
      ],
      [
        "ĠA",
        "b"
      ],
      [
        "ĠU",
        "AR"
      ],
      [
        "Ġc",
        "oll"
      ],
      [
        "Ġc",
        "ould"
      ],
      [
        "ro",
        "ach"
      ],
      [
        "Ġf",
        "ul"
      ],
      [
        "Ġf",
        "ull"
      ],
      [
        "Ġf",
        "act"
      ],
      [
        "Ġm",
        "agnet"
      ],
      [
        "Ġb",
        "ase"
      ],
      [
        "am",
        "p"
      ],
      [
        "ol",
        "ution"
      ],
      [
        "ĠB",
        "y"
      ],
      [
        "Ġcon",
        "vers"
      ],
      [
        "ur",
        "ance"
      ],
      [
        "ect",
        "rical"
      ],
      [
        "Ġth",
        "an"
      ],
      [
        "for",
        "t"
      ],
      [
        "ĠD",
        "es"
      ],
      [
        "ĠM",
        "ar"
      ],
      [
        "ĠHow",
        "ever"
      ],
      [
        "ĠS",
        "ur"
      ],
      [
        "ĠS",
        "PI"
      ],
      [
        "Ġcomp",
        "ute"
      ],
      [
        "Ġcomp",
        "ared"
      ],
      [
        "and",
        "om"
      ],
      [
        "ist",
        "ent"
      ],
      [
        "iz",
        "es"
      ],
      [
        "iz",
        "ation"
      ],
      [
        "Ġprovid",
        "ed"
      ],
      [
        "if",
        "y"
      ],
      [
        "Ġwh",
        "ere"
      ],
      [
        "Ġwh",
        "ile"
      ],
      [
        "Ġro",
        "s"
      ],
      [
        "ĠNM",
        "C"
      ],
      [
        "Ġun",
        "obst"
      ],
      [
        "Ġsimul",
        "ated"
      ],
      [
        "ĠK",
        "rist"
      ],
      [
        "Ġpl",
        "ay"
      ],
      [
        "Ġintegr",
        "ated"
      ],
      [
        "Ġdet",
        "ermin"
      ],
      [
        "Ġconnect",
        "ion"
      ],
      [
        "Ġne",
        "w"
      ],
      [
        "Ġrec",
        "o"
      ],
      [
        "end",
        "ed"
      ],
      [
        "Ġlik",
        "ely"
      ],
      [
        "ĠJ",
        "an"
      ],
      [
        "Ġtrans",
        "fer"
      ],
      [
        "Ġtrain",
        "ed"
      ],
      [
        "Ġremot",
        "ely"
      ],
      [
        "ient",
        "ation"
      ],
      [
        "Ġserv",
        "ed"
      ],
      [
        "ruct",
        "ed"
      ],
      [
        "Ġdistrib",
        "ut"
      ],
      [
        "Ġmount",
        "ing"
      ],
      [
        "Ġcons",
        "istent"
      ],
      [
        "Ġcre",
        "ated"
      ],
      [
        "Ġdepend",
        "encies"
      ],
      [
        "Ġhapp",
        "ens"
      ],
      [
        "Ġneur",
        "on"
      ],
      [
        "Ġsec",
        "ure"
      ],
      [
        "Ġend",
        "urance"
      ],
      [
        "Ġisol",
        "ates"
      ],
      [
        "Ġenti",
        "re"
      ],
      [
        "ĠUAR",
        "T"
      ],
      [
        "Ġful",
        "ly"
      ],
      [
        "Ġunobst",
        "ructed"
      ],
      [
        "ĠKrist",
        "ian"
      ],
      [
        "'",
        "re"
      ],
      [
        "2",
        "00"
      ],
      [
        "D",
        "P"
      ],
      [
        "b",
        "ed"
      ],
      [
        "b",
        "un"
      ],
      [
        "j",
        "ust"
      ],
      [
        "l",
        "are"
      ],
      [
        "o",
        "al"
      ],
      [
        "t",
        "u"
      ],
      [
        "u",
        "ch"
      ],
      [
        "u",
        "ard"
      ],
      [
        "v",
        "ent"
      ],
      [
        "w",
        "ard"
      ],
      [
        "Ġ",
        "Î"
      ],
      [
        "Ġt",
        "as"
      ],
      [
        "Ġt",
        "erm"
      ],
      [
        "in",
        "u"
      ],
      [
        "in",
        "al"
      ],
      [
        "er",
        "gy"
      ],
      [
        "en",
        "al"
      ],
      [
        "ĠU",
        "DP"
      ],
      [
        "ĠU",
        "bun"
      ],
      [
        "Ġp",
        "enal"
      ],
      [
        "Ġd",
        "el"
      ],
      [
        "an",
        "ced"
      ],
      [
        "an",
        "cing"
      ],
      [
        "Ġm",
        "uch"
      ],
      [
        "Ġin",
        "s"
      ],
      [
        "Ġb",
        "al"
      ],
      [
        "ou",
        "gh"
      ],
      [
        "st",
        "and"
      ],
      [
        "om",
        "e"
      ],
      [
        "Ġh",
        "y"
      ],
      [
        "Ġh",
        "ow"
      ],
      [
        "Ġre",
        "g"
      ],
      [
        "Ġre",
        "inforcement"
      ],
      [
        "od",
        "e"
      ],
      [
        "od",
        "el"
      ],
      [
        "per",
        "form"
      ],
      [
        "ĠD",
        "elt"
      ],
      [
        "ter",
        "ed"
      ],
      [
        "Ġst",
        "ation"
      ],
      [
        "ĠP",
        "re"
      ],
      [
        "ĠP",
        "rin"
      ],
      [
        "Ġus",
        "age"
      ],
      [
        "ver",
        "age"
      ],
      [
        "Ġen",
        "ergy"
      ],
      [
        "Ġare",
        "as"
      ],
      [
        "ist",
        "ic"
      ],
      [
        "Ġor",
        "ientation"
      ],
      [
        "ine",
        "er"
      ],
      [
        "th",
        "readed"
      ],
      [
        "Ġad",
        "just"
      ],
      [
        "Ġco",
        "ast"
      ],
      [
        "Ġro",
        "bot"
      ],
      [
        "Ġaut",
        "hor"
      ],
      [
        "ct",
        "ions"
      ],
      [
        "Ġdes",
        "crib"
      ],
      [
        "ord",
        "ing"
      ],
      [
        "ĠF",
        "or"
      ],
      [
        "Ġoper",
        "ation"
      ],
      [
        "vis",
        "or"
      ],
      [
        "ial",
        "ly"
      ],
      [
        "ĠAn",
        "alysis"
      ],
      [
        "oin",
        "ts"
      ],
      [
        "Ġfe",
        "el"
      ],
      [
        "Ġtechn",
        "ology"
      ],
      [
        "Ġexper",
        "ience"
      ],
      [
        "Ġprior",
        "ity"
      ],
      [
        "ruct",
        "ure"
      ],
      [
        "Ġcompon",
        "ent"
      ],
      [
        "Ġout",
        "put"
      ],
      [
        "Ġte",
        "xt"
      ],
      [
        "Ġpolic",
        "y"
      ],
      [
        "Ġinit",
        "i"
      ],
      [
        "ĠCom",
        "ponent"
      ],
      [
        "Ġadapt",
        "ed"
      ],
      [
        "Ġ12",
        "8"
      ],
      [
        "Ġshut",
        "down"
      ],
      [
        "Ġang",
        "ular"
      ],
      [
        "Ġbehav",
        "ior"
      ],
      [
        "Ġchannel",
        "s"
      ],
      [
        "Ġtas",
        "ks"
      ],
      [
        "ĠUbun",
        "tu"
      ],
      [
        "ĠDelt",
        "a"
      ],
      [
        "ĠPrin",
        "cipal"
      ],
      [
        "Ġcoast",
        "al"
      ],
      [
        "7",
        "1"
      ],
      [
        "L",
        "OS"
      ],
      [
        "a",
        "ult"
      ],
      [
        "b",
        "le"
      ],
      [
        "b",
        "ag"
      ],
      [
        "c",
        "ell"
      ],
      [
        "c",
        "ontrol"
      ],
      [
        "e",
        "ep"
      ],
      [
        "r",
        "ated"
      ],
      [
        "w",
        "o"
      ],
      [
        "Ġ",
        "es"
      ],
      [
        "Ġ",
        "gr"
      ],
      [
        "Ġt",
        "un"
      ],
      [
        "on",
        "fig"
      ],
      [
        "Ġa",
        "lum"
      ],
      [
        "en",
        "abled"
      ],
      [
        "Ġc",
        "and"
      ],
      [
        "Ġc",
        "orre"
      ],
      [
        "Ġs",
        "am"
      ],
      [
        "Ġs",
        "un"
      ],
      [
        "Ġs",
        "ize"
      ],
      [
        "re",
        "al"
      ],
      [
        "Ġd",
        "ock"
      ],
      [
        "Ġf",
        "ac"
      ],
      [
        "Ġm",
        "et"
      ],
      [
        "Ġm",
        "ach"
      ],
      [
        "Ġan",
        "alysis"
      ],
      [
        "Ġin",
        "dust"
      ],
      [
        "Ġw",
        "ay"
      ],
      [
        "el",
        "ine"
      ],
      [
        "Ġo",
        "p"
      ],
      [
        "Ġpro",
        "f"
      ],
      [
        "Ġre",
        "ason"
      ],
      [
        "Ġre",
        "ward"
      ],
      [
        "id",
        "ed"
      ],
      [
        "id",
        "ent"
      ],
      [
        "id",
        "ate"
      ],
      [
        "Ġof",
        "fer"
      ],
      [
        "Ġv",
        "al"
      ],
      [
        "Ġr",
        "ud"
      ],
      [
        "Ġr",
        "ating"
      ],
      [
        "Ġr",
        "ays"
      ],
      [
        "ĠT",
        "r"
      ],
      [
        "ĠT",
        "wo"
      ],
      [
        "Ġe",
        "very"
      ],
      [
        "Ġst",
        "ack"
      ],
      [
        "Ġst",
        "atic"
      ],
      [
        "Ġcomp",
        "ut"
      ],
      [
        "ject",
        "ive"
      ],
      [
        "pp",
        "s"
      ],
      [
        "Ġproject",
        "s"
      ],
      [
        "if",
        "ication"
      ],
      [
        "us",
        "s"
      ],
      [
        "ĠIn",
        "tegr"
      ],
      [
        "âĢ",
        "ĵ"
      ],
      [
        "ace",
        "ment"
      ],
      [
        "Ġvi",
        "rt"
      ],
      [
        "ap",
        "h"
      ],
      [
        "Ġintegr",
        "ator"
      ],
      [
        "Ġdet",
        "ect"
      ],
      [
        "ĠPro",
        "port"
      ],
      [
        "Ġ2",
        "5"
      ],
      [
        "led",
        "ge"
      ],
      [
        "Ġinclu",
        "de"
      ],
      [
        "ci",
        "ence"
      ],
      [
        "Ġlimit",
        "ed"
      ],
      [
        "Ġprot",
        "ect"
      ],
      [
        "Ġpos",
        "s"
      ],
      [
        "Ġexper",
        "t"
      ],
      [
        "Ġcurr",
        "ents"
      ],
      [
        "Ġcontain",
        "er"
      ],
      [
        "Ġknow",
        "ledge"
      ],
      [
[...]
